#include "magic_wand_model_data.h"


// We need to keep the data array aligned on some architectures.

#ifdef __has_attribute

#define HAVE_ATTRIBUTE(x) __has_attribute(x)

#else

#define HAVE_ATTRIBUTE(x) 0

#endif

#if HAVE_ATTRIBUTE(aligned) || (defined(__GNUC__) && !defined(__clang__))

#define DATA_ALIGN_ATTRIBUTE __attribute__((aligned(4)))

#else

#define DATA_ALIGN_ATTRIBUTE

#endif


const unsigned char g_magic_wand_model_data[] DATA_ALIGN_ATTRIBUTE = {


  0x08, 0x00, 0x00, 0x00, 0x54, 0x46, 0x4c, 0x33, 0x62, 0xff, 0xff, 0xff,
  0x03, 0x00, 0x00, 0x00, 0x10, 0x00, 0x00, 0x00, 0x24, 0x00, 0x00, 0x00,
  0x78, 0x00, 0x00, 0x00, 0x24, 0x00, 0x00, 0x00, 0x05, 0x00, 0x00, 0x00,
  0x78, 0x05, 0x00, 0x00, 0xb0, 0x04, 0x00, 0x00, 0xe0, 0x02, 0x00, 0x00,
  0x60, 0x02, 0x00, 0x00, 0x54, 0x01, 0x00, 0x00, 0x01, 0x00, 0x00, 0x00,
  0x78, 0x00, 0x00, 0x00, 0x13, 0x00, 0x00, 0x00, 0x18, 0x30, 0x00, 0x00,
  0x14, 0x30, 0x00, 0x00, 0x20, 0x2f, 0x00, 0x00, 0xa8, 0x2e, 0x00, 0x00,
  0x3c, 0x2e, 0x00, 0x00, 0xec, 0x11, 0x00, 0x00, 0x98, 0x10, 0x00, 0x00,
  0xbc, 0x0e, 0x00, 0x00, 0x60, 0x06, 0x00, 0x00, 0xfc, 0x05, 0x00, 0x00,
  0x78, 0x05, 0x00, 0x00, 0xec, 0x2f, 0x00, 0x00, 0xe8, 0x2f, 0x00, 0x00,
  0xe4, 0x2f, 0x00, 0x00, 0xe0, 0x2f, 0x00, 0x00, 0xdc, 0x2f, 0x00, 0x00,
  0xd8, 0x2f, 0x00, 0x00, 0xd4, 0x2f, 0x00, 0x00, 0xd0, 0x2f, 0x00, 0x00,
  0x0f, 0x00, 0x00, 0x00, 0x4d, 0x4c, 0x49, 0x52, 0x20, 0x43, 0x6f, 0x6e,
  0x76, 0x65, 0x72, 0x74, 0x65, 0x64, 0x2e, 0x00, 0x00, 0x00, 0x0e, 0x00,
  0x18, 0x00, 0x04, 0x00, 0x08, 0x00, 0x0c, 0x00, 0x10, 0x00, 0x14, 0x00,
  0x0e, 0x00, 0x00, 0x00, 0x14, 0x00, 0x00, 0x00, 0x5c, 0x00, 0x00, 0x00,
  0x60, 0x00, 0x00, 0x00, 0x64, 0x00, 0x00, 0x00, 0x84, 0x00, 0x00, 0x00,
  0x12, 0x00, 0x00, 0x00, 0x48, 0x2f, 0x00, 0x00, 0xe4, 0x2e, 0x00, 0x00,
  0x3c, 0x2e, 0x00, 0x00, 0xd8, 0x2d, 0x00, 0x00, 0x70, 0x2d, 0x00, 0x00,
  0x1c, 0x11, 0x00, 0x00, 0xc0, 0x0f, 0x00, 0x00, 0xe4, 0x0d, 0x00, 0x00,
  0xa0, 0x05, 0x00, 0x00, 0x3c, 0x05, 0x00, 0x00, 0xb0, 0x04, 0x00, 0x00,
  0xe8, 0x03, 0x00, 0x00, 0x38, 0x03, 0x00, 0x00, 0xa4, 0x02, 0x00, 0x00,
  0x10, 0x02, 0x00, 0x00, 0x90, 0x01, 0x00, 0x00, 0xfc, 0x00, 0x00, 0x00,
  0x80, 0x00, 0x00, 0x00, 0x01, 0x00, 0x00, 0x00, 0x00, 0x00, 0x00, 0x00,
  0x01, 0x00, 0x00, 0x00, 0x11, 0x00, 0x00, 0x00, 0x08, 0x00, 0x00, 0x00,
  0x1c, 0x04, 0x00, 0x00, 0x58, 0x03, 0x00, 0x00, 0xc8, 0x02, 0x00, 0x00,
  0x24, 0x02, 0x00, 0x00, 0xac, 0x01, 0x00, 0x00, 0x10, 0x01, 0x00, 0x00,
  0x94, 0x00, 0x00, 0x00, 0x10, 0x00, 0x00, 0x00, 0x04, 0x00, 0x00, 0x00,
  0x6d, 0x61, 0x69, 0x6e, 0x00, 0x00, 0x00, 0x00, 0x8e, 0xff, 0xff, 0xff,
  0x00, 0x00, 0x00, 0x09, 0x04, 0x00, 0x00, 0x00, 0x1c, 0x00, 0x00, 0x00,
  0x10, 0x00, 0x00, 0x00, 0x04, 0x00, 0x00, 0x00, 0x0a, 0xd2, 0xff, 0xff,
  0x00, 0x00, 0x80, 0x3f, 0x01, 0x00, 0x00, 0x00, 0x11, 0x00, 0x00, 0x00,
  0x01, 0x00, 0x00, 0x00, 0x10, 0x00, 0x00, 0x00, 0xf6, 0xfb, 0xff, 0xff,
  0x00, 0x00, 0x00, 0x19, 0x01, 0x00, 0x00, 0x00, 0x8a, 0xd1, 0xff, 0xff,
  0x10, 0x00, 0x00, 0x00, 0x12, 0x00, 0x00, 0x00, 0x14, 0x00, 0x00, 0x00,
  0x20, 0x00, 0x00, 0x00, 0x02, 0x00, 0x00, 0x00, 0x01, 0x00, 0x00, 0x00,
  0x04, 0x00, 0x00, 0x00, 0x08, 0x00, 0x00, 0x00, 0x49, 0x64, 0x65, 0x6e,
  0x74, 0x69, 0x74, 0x79, 0x00, 0x00, 0x00, 0x00, 0xc4, 0xd1, 0xff, 0xff,
  0x00, 0x00, 0x0e, 0x00, 0x18, 0x00, 0x08, 0x00, 0x0c, 0x00, 0x10, 0x00,
  0x07, 0x00, 0x14, 0x00, 0x0e, 0x00, 0x00, 0x00, 0x00, 0x00, 0x00, 0x08,
  0x03, 0x00, 0x00, 0x00, 0x18, 0x00, 0x00, 0x00, 0x0c, 0x00, 0x00, 0x00,
  0x04, 0x00, 0x00, 0x00, 0x98, 0xd1, 0xff, 0xff, 0x01, 0x00, 0x00, 0x00,
  0x10, 0x00, 0x00, 0x00, 0x03, 0x00, 0x00, 0x00, 0x0f, 0x00, 0x00, 0x00,
  0x05, 0x00, 0x00, 0x00, 0x02, 0x00, 0x00, 0x00, 0x02, 0xd2, 0xff, 0xff,
  0x10, 0x00, 0x00, 0x00, 0x11, 0x00, 0x00, 0x00, 0x14, 0x00, 0x00, 0x00,
  0x30, 0x00, 0x00, 0x00, 0x02, 0x00, 0x00, 0x00, 0x01, 0x00, 0x00, 0x00,
  0x04, 0x00, 0x00, 0x00, 0x1a, 0x00, 0x00, 0x00, 0x73, 0x65, 0x71, 0x75,
  0x65, 0x6e, 0x74, 0x69, 0x61, 0x6c, 0x2f, 0x64, 0x65, 0x6e, 0x73, 0x65,
  0x5f, 0x31, 0x2f, 0x42, 0x69, 0x61, 0x73, 0x41, 0x64, 0x64, 0x00, 0x00,
  0xf4, 0xd1, 0xff, 0xff, 0xd6, 0xfd, 0xff, 0xff, 0x00, 0x00, 0x00, 0x08,
  0x03, 0x00, 0x00, 0x00, 0x24, 0x00, 0x00, 0x00, 0x18, 0x00, 0x00, 0x00,
  0x0c, 0x00, 0x00, 0x00, 0x00, 0x00, 0x06, 0x00, 0x08, 0x00, 0x07, 0x00,
  0x06, 0x00, 0x00, 0x00, 0x00, 0x00, 0x00, 0x01, 0x01, 0x00, 0x00, 0x00,
  0x0f, 0x00, 0x00, 0x00, 0x03, 0x00, 0x00, 0x00, 0x0e, 0x00, 0x00, 0x00,
  0x04, 0x00, 0x00, 0x00, 0x01, 0x00, 0x00, 0x00, 0xfe, 0xfc, 0xff, 0xff,
  0x00, 0x00, 0x00, 0x09, 0x01, 0x00, 0x00, 0x00, 0x92, 0xd2, 0xff, 0xff,
  0x10, 0x00, 0x00, 0x00, 0x10, 0x00, 0x00, 0x00, 0x14, 0x00, 0x00, 0x00,
  0x2c, 0x00, 0x00, 0x00, 0x02, 0x00, 0x00, 0x00, 0x01, 0x00, 0x00, 0x00,
  0x10, 0x00, 0x00, 0x00, 0x15, 0x00, 0x00, 0x00, 0x73, 0x65, 0x71, 0x75,
  0x65, 0x6e, 0x74, 0x69, 0x61, 0x6c, 0x2f, 0x64, 0x65, 0x6e, 0x73, 0x65,
  0x2f, 0x52, 0x65, 0x6c, 0x75, 0x00, 0x00, 0x00, 0xd8, 0xd2, 0xff, 0xff,
  0x00, 0x00, 0x0a, 0x00, 0x10, 0x00, 0x04, 0x00, 0x08, 0x00, 0x0c, 0x00,
  0x0a, 0x00, 0x00, 0x00, 0x02, 0x00, 0x00, 0x00, 0x10, 0x00, 0x00, 0x00,
  0x04, 0x00, 0x00, 0x00, 0x01, 0x00, 0x00, 0x00, 0x0e, 0x00, 0x00, 0x00,
  0x02, 0x00, 0x00, 0x00, 0x0d, 0x00, 0x00, 0x00, 0x03, 0x00, 0x00, 0x00,
  0x7a, 0xfd, 0xff, 0xff, 0x00, 0x00, 0x00, 0x16, 0x01, 0x00, 0x00, 0x00,
  0x0e, 0xd3, 0xff, 0xff, 0x10, 0x00, 0x00, 0x00, 0x0f, 0x00, 0x00, 0x00,
  0x14, 0x00, 0x00, 0x00, 0x30, 0x00, 0x00, 0x00, 0x02, 0x00, 0x00, 0x00,
  0x01, 0x00, 0x00, 0x00, 0x70, 0x00, 0x00, 0x00, 0x1a, 0x00, 0x00, 0x00,
  0x73, 0x65, 0x71, 0x75, 0x65, 0x6e, 0x74, 0x69, 0x61, 0x6c, 0x2f, 0x66,
  0x6c, 0x61, 0x74, 0x74, 0x65, 0x6e, 0x2f, 0x52, 0x65, 0x73, 0x68, 0x61,
  0x70, 0x65, 0x00, 0x00, 0x00, 0xd3, 0xff, 0xff, 0xe2, 0xfe, 0xff, 0xff,
  0x00, 0x00, 0x00, 0x05, 0x01, 0x00, 0x00, 0x00, 0x38, 0x00, 0x00, 0x00,
  0x2c, 0x00, 0x00, 0x00, 0x14, 0x00, 0x00, 0x00, 0x00, 0x00, 0x0e, 0x00,
  0x14, 0x00, 0x00, 0x00, 0x10, 0x00, 0x0c, 0x00, 0x08, 0x00, 0x04, 0x00,
  0x0e, 0x00, 0x00, 0x00, 0x03, 0x00, 0x00, 0x00, 0x01, 0x00, 0x00, 0x00,
  0x03, 0x00, 0x00, 0x00, 0x01, 0x00, 0x00, 0x00, 0x01, 0x00, 0x00, 0x00,
  0x0d, 0x00, 0x00, 0x00, 0x01, 0x00, 0x00, 0x00, 0x0c, 0x00, 0x00, 0x00,
  0x9e, 0xd3, 0xff, 0xff, 0x10, 0x00, 0x00, 0x00, 0x0e, 0x00, 0x00, 0x00,
  0x1c, 0x00, 0x00, 0x00, 0x40, 0x00, 0x00, 0x00, 0x04, 0x00, 0x00, 0x00,
  0x01, 0x00, 0x00, 0x00, 0x07, 0x00, 0x00, 0x00, 0x01, 0x00, 0x00, 0x00,
  0x10, 0x00, 0x00, 0x00, 0x22, 0x00, 0x00, 0x00, 0x73, 0x65, 0x71, 0x75,
  0x65, 0x6e, 0x74, 0x69, 0x61, 0x6c, 0x2f, 0x6d, 0x61, 0x78, 0x5f, 0x70,
  0x6f, 0x6f, 0x6c, 0x69, 0x6e, 0x67, 0x32, 0x64, 0x5f, 0x31, 0x2f, 0x4d,
  0x61, 0x78, 0x50, 0x6f, 0x6f, 0x6c, 0x00, 0x00, 0xa0, 0xd3, 0xff, 0xff,
  0xc2, 0xfe, 0xff, 0xff, 0x00, 0x00, 0x00, 0x01, 0x24, 0x00, 0x00, 0x00,
  0x18, 0x00, 0x00, 0x00, 0x04, 0x00, 0x00, 0x00, 0xb4, 0xfe, 0xff, 0xff,
  0x01, 0x00, 0x00, 0x00, 0x01, 0x00, 0x00, 0x00, 0x00, 0x00, 0x00, 0x01,
  0x01, 0x00, 0x00, 0x00, 0x0c, 0x00, 0x00, 0x00, 0x03, 0x00, 0x00, 0x00,
  0x0b, 0x00, 0x00, 0x00, 0x07, 0x00, 0x00, 0x00, 0x09, 0x00, 0x00, 0x00,
  0x2e, 0xd4, 0xff, 0xff, 0x10, 0x00, 0x00, 0x00, 0x0d, 0x00, 0x00, 0x00,
  0x1c, 0x00, 0x00, 0x00, 0x2c, 0x00, 0x00, 0x00, 0x04, 0x00, 0x00, 0x00,
  0x01, 0x00, 0x00, 0x00, 0x15, 0x00, 0x00, 0x00, 0x01, 0x00, 0x00, 0x00,
  0x10, 0x00, 0x00, 0x00, 0x0c, 0x00, 0x00, 0x00, 0x74, 0x66, 0x6c, 0x2e,
  0x63, 0x6f, 0x6e, 0x76, 0x5f, 0x32, 0x64, 0x31, 0x00, 0x00, 0x00, 0x00,
  0x74, 0xd4, 0xff, 0xff, 0x00, 0x00, 0x0e, 0x00, 0x1a, 0x00, 0x08, 0x00,
  0x0c, 0x00, 0x10, 0x00, 0x07, 0x00, 0x14, 0x00, 0x0e, 0x00, 0x00, 0x00,
  0x00, 0x00, 0x00, 0x05, 0x01, 0x00, 0x00, 0x00, 0x3c, 0x00, 0x00, 0x00,
  0x30, 0x00, 0x00, 0x00, 0x14, 0x00, 0x00, 0x00, 0x00, 0x00, 0x0e, 0x00,
  0x18, 0x00, 0x17, 0x00, 0x10, 0x00, 0x0c, 0x00, 0x08, 0x00, 0x04, 0x00,
  0x0e, 0x00, 0x00, 0x00, 0x03, 0x00, 0x00, 0x00, 0x03, 0x00, 0x00, 0x00,
  0x03, 0x00, 0x00, 0x00, 0x03, 0x00, 0x00, 0x00, 0x00, 0x00, 0x00, 0x01,
  0x01, 0x00, 0x00, 0x00, 0x0b, 0x00, 0x00, 0x00, 0x01, 0x00, 0x00, 0x00,
  0x0a, 0x00, 0x00, 0x00, 0x46, 0xff, 0xff, 0xff, 0x00, 0x00, 0x00, 0x11,
  0x01, 0x00, 0x00, 0x00, 0xda, 0xd4, 0xff, 0xff, 0x10, 0x00, 0x00, 0x00,
  0x0c, 0x00, 0x00, 0x00, 0x1c, 0x00, 0x00, 0x00, 0x40, 0x00, 0x00, 0x00,
  0x04, 0x00, 0x00, 0x00, 0x01, 0x00, 0x00, 0x00, 0x15, 0x00, 0x00, 0x00,
  0x01, 0x00, 0x00, 0x00, 0x08, 0x00, 0x00, 0x00, 0x20, 0x00, 0x00, 0x00,
  0x73, 0x65, 0x71, 0x75, 0x65, 0x6e, 0x74, 0x69, 0x61, 0x6c, 0x2f, 0x6d,
  0x61, 0x78, 0x5f, 0x70, 0x6f, 0x6f, 0x6c, 0x69, 0x6e, 0x67, 0x32, 0x64,
  0x2f, 0x4d, 0x61, 0x78, 0x50, 0x6f, 0x6f, 0x6c, 0x00, 0x00, 0x00, 0x00,
  0x34, 0xd5, 0xff, 0xff, 0x00, 0x00, 0x0e, 0x00, 0x14, 0x00, 0x00, 0x00,
  0x08, 0x00, 0x0c, 0x00, 0x07, 0x00, 0x10, 0x00, 0x0e, 0x00, 0x00, 0x00,
  0x00, 0x00, 0x00, 0x01, 0x30, 0x00, 0x00, 0x00, 0x24, 0x00, 0x00, 0x00,
  0x10, 0x00, 0x00, 0x00, 0x0c, 0x00, 0x10, 0x00, 0x00, 0x00, 0x04, 0x00,
  0x08, 0x00, 0x0f, 0x00, 0x0c, 0x00, 0x00, 0x00, 0x01, 0x00, 0x00, 0x00,
  0x01, 0x00, 0x00, 0x00, 0x00, 0x00, 0x00, 0x01, 0x01, 0x00, 0x00, 0x00,
  0x0a, 0x00, 0x00, 0x00, 0x03, 0x00, 0x00, 0x00, 0x00, 0x00, 0x00, 0x00,
  0x06, 0x00, 0x00, 0x00, 0x08, 0x00, 0x00, 0x00, 0x00, 0x00, 0x0a, 0x00,
  0x0c, 0x00, 0x07, 0x00, 0x00, 0x00, 0x08, 0x00, 0x0a, 0x00, 0x00, 0x00,
  0x00, 0x00, 0x00, 0x03, 0x01, 0x00, 0x00, 0x00, 0x9e, 0xd5, 0xff, 0xff,
  0x10, 0x00, 0x00, 0x00, 0x0b, 0x00, 0x00, 0x00, 0x1c, 0x00, 0x00, 0x00,
  0x28, 0x00, 0x00, 0x00, 0x04, 0x00, 0x00, 0x00, 0x01, 0x00, 0x00, 0x00,
  0x40, 0x00, 0x00, 0x00, 0x03, 0x00, 0x00, 0x00, 0x08, 0x00, 0x00, 0x00,
  0x0b, 0x00, 0x00, 0x00, 0x74, 0x66, 0x6c, 0x2e, 0x63, 0x6f, 0x6e, 0x76,
  0x5f, 0x32, 0x64, 0x00, 0x88, 0xd5, 0xff, 0xff, 0x7e, 0xd6, 0xff, 0xff,
  0x04, 0x00, 0x00, 0x00, 0x40, 0x00, 0x00, 0x00, 0xe6, 0xb2, 0xe8, 0xbd,
  0x2d, 0x7d, 0x27, 0xbe, 0x88, 0x69, 0xf9, 0xbe, 0x54, 0x56, 0xe0, 0xbf,
  0x45, 0x83, 0x1e, 0x40, 0x60, 0xd4, 0x29, 0x3f, 0x56, 0x85, 0xdd, 0xbe,
  0xa7, 0xe4, 0x50, 0x3f, 0x89, 0xdc, 0xd8, 0x3e, 0xd5, 0xed, 0x6f, 0xbf,
  0x3e, 0x3f, 0x1a, 0xc0, 0xee, 0x18, 0x7c, 0x40, 0xeb, 0xa8, 0xa8, 0xbf,
  0x16, 0x05, 0x8c, 0xbf, 0xd8, 0x54, 0xb5, 0x3b, 0x19, 0x72, 0x67, 0x3e,
  0x26, 0xd6, 0xff, 0xff, 0x10, 0x00, 0x00, 0x00, 0x0a, 0x00, 0x00, 0x00,
  0x10, 0x00, 0x00, 0x00, 0x20, 0x00, 0x00, 0x00, 0x01, 0x00, 0x00, 0x00,
  0x10, 0x00, 0x00, 0x00, 0x0d, 0x00, 0x00, 0x00, 0x73, 0x74, 0x64, 0x2e,
  0x63, 0x6f, 0x6e, 0x73, 0x74, 0x61, 0x6e, 0x74, 0x31, 0x00, 0x00, 0x00,
  0x08, 0xd6, 0xff, 0xff, 0xfe, 0xd6, 0xff, 0xff, 0x04, 0x00, 0x00, 0x00,
  0x20, 0x00, 0x00, 0x00, 0x64, 0x0a, 0xc8, 0xbf, 0xfd, 0xa1, 0xa6, 0xbf,
  0x5f, 0xa8, 0x3b, 0xc0, 0x3f, 0x79, 0xbd, 0xbc, 0x87, 0x21, 0xf4, 0xbf,
  0x9a, 0x26, 0x25, 0xc0, 0xe3, 0xd5, 0xc6, 0xbf, 0x80, 0xc4, 0x0e, 0xc0,
  0x86, 0xd6, 0xff, 0xff, 0x10, 0x00, 0x00, 0x00, 0x09, 0x00, 0x00, 0x00,
  0x10, 0x00, 0x00, 0x00, 0x20, 0x00, 0x00, 0x00, 0x01, 0x00, 0x00, 0x00,
  0x08, 0x00, 0x00, 0x00, 0x0c, 0x00, 0x00, 0x00, 0x73, 0x74, 0x64, 0x2e,
  0x63, 0x6f, 0x6e, 0x73, 0x74, 0x61, 0x6e, 0x74, 0x00, 0x00, 0x00, 0x00,
  0x68, 0xd6, 0xff, 0xff, 0x5e, 0xd7, 0xff, 0xff, 0x04, 0x00, 0x00, 0x00,
  0x00, 0x08, 0x00, 0x00, 0x9d, 0xff, 0xbe, 0x3e, 0x24, 0xfb, 0xbd, 0xbe,
  0x78, 0x54, 0xf6, 0xbc, 0x13, 0xf0, 0xa6, 0xbd, 0x43, 0xb1, 0x85, 0xbc,
  0x13, 0x83, 0x7a, 0xbd, 0x36, 0x4f, 0x48, 0x3d, 0x3e, 0x2c, 0x89, 0xbc,
  0x6b, 0x3b, 0xc8, 0xbe, 0xc7, 0x4c, 0xbf, 0xbe, 0x78, 0x4a, 0xf7, 0xbb,
  0x2f, 0xeb, 0x26, 0xbe, 0xb9, 0x2d, 0x6b, 0x3e, 0xf2, 0xe4, 0x81, 0xbd,
  0x27, 0x93, 0x81, 0x3c, 0xef, 0xad, 0x99, 0xbd, 0x30, 0x4b, 0xb9, 0xbe,
  0x26, 0xcf, 0x04, 0xbf, 0x97, 0x1c, 0x8d, 0xbd, 0x81, 0xee, 0xa7, 0xbd,
  0xfc, 0xd6, 0xfb, 0xbc, 0x27, 0xce, 0x7b, 0xba, 0xe6, 0x30, 0x75, 0xbd,
  0xbe, 0x1f, 0x9f, 0xbe, 0xb8, 0x0d, 0xbd, 0xbe, 0x5a, 0xd2, 0x19, 0xbf,
  0xb2, 0xf5, 0xea, 0xbc, 0x93, 0x59, 0x80, 0xbd, 0x9d, 0x26, 0xf9, 0x3c,
  0x00, 0x52, 0xd1, 0x3d, 0xe3, 0x9d, 0xb3, 0xbc, 0xd4, 0x5b, 0x00, 0xbf,
  0x28, 0x9d, 0xe1, 0xbd, 0x7f, 0xc5, 0xa0, 0x3d, 0xe5, 0xe4, 0x12, 0xbe,
  0x6b, 0x48, 0x1e, 0xbd, 0xfb, 0xb1, 0x29, 0x3c, 0xb7, 0x89, 0xfe, 0xbd,
  0x5b, 0x4d, 0x21, 0xbe, 0xbd, 0x31, 0x71, 0xbe, 0x40, 0x05, 0xb5, 0xbd,
  0x1f, 0x8b, 0x7d, 0x3e, 0x90, 0x0d, 0x9a, 0xbe, 0x96, 0xc8, 0x6f, 0xbe,
  0x31, 0x24, 0x87, 0xbe, 0x4f, 0x3b, 0x75, 0xbd, 0x22, 0xfd, 0xd6, 0xbe,
  0x2c, 0x53, 0x05, 0xbe, 0x64, 0xe6, 0x50, 0xbc, 0x1c, 0xeb, 0xde, 0x3d,
  0x98, 0x01, 0x5f, 0xbe, 0xcb, 0x65, 0xee, 0xbd, 0x8f, 0xa8, 0xc6, 0xbe,
  0xec, 0xb6, 0xa0, 0xbe, 0xcb, 0x20, 0xb9, 0xba, 0x54, 0x8c, 0xf4, 0x3d,
  0x3c, 0x3a, 0xd4, 0x3c, 0x4b, 0x8b, 0x3e, 0xbe, 0x3c, 0x7c, 0xcc, 0x3d,
  0x58, 0x49, 0x6c, 0xbe, 0x3a, 0x96, 0x68, 0xbe, 0xd3, 0x18, 0xc0, 0xbe,
  0x65, 0x41, 0x80, 0xbd, 0x9d, 0x00, 0x1a, 0xbe, 0xdb, 0xd5, 0x17, 0xbe,
  0x4e, 0x44, 0x33, 0xbe, 0xcc, 0x32, 0xc8, 0xbd, 0xd4, 0x4a, 0x19, 0x3e,
  0xc7, 0x22, 0x1f, 0xbe, 0x2c, 0xef, 0xae, 0xbe, 0x2d, 0xce, 0x93, 0xbd,
  0xb1, 0x20, 0x10, 0xbf, 0xea, 0x3d, 0xb8, 0xbd, 0xe7, 0x6f, 0xb0, 0xbd,
  0x1b, 0xed, 0x90, 0xbc, 0x9e, 0x4b, 0x08, 0x3e, 0xb1, 0x8e, 0x41, 0xbe,
  0xb7, 0x68, 0x01, 0xbf, 0x5a, 0x53, 0x88, 0xbd, 0x30, 0x35, 0x7c, 0xbe,
  0xd0, 0x21, 0x33, 0xbe, 0xd5, 0xea, 0xa6, 0xbe, 0x54, 0x08, 0xcd, 0xbd,
  0x4a, 0x39, 0x16, 0x3d, 0x0e, 0xd0, 0x46, 0xbe, 0x72, 0x3e, 0x02, 0xbf,
  0x1f, 0xf6, 0x7a, 0xbe, 0xf4, 0xfb, 0xab, 0x3e, 0x24, 0xbb, 0xab, 0xbe,
  0x16, 0x05, 0xea, 0x3d, 0x4f, 0x33, 0x6d, 0xbe, 0xef, 0xa3, 0x97, 0xbd,
  0xa5, 0x22, 0x8b, 0xbe, 0xd7, 0xcd, 0x00, 0x3e, 0x79, 0x00, 0xa3, 0x3d,
  0xab, 0xd2, 0x08, 0x3f, 0x4e, 0x6f, 0x0b, 0xbe, 0x83, 0xc5, 0x37, 0xbd,
  0x24, 0x02, 0xfb, 0xbd, 0x8c, 0xc1, 0x0e, 0xbe, 0xd4, 0x8f, 0xb8, 0xbd,
  0xf4, 0xb1, 0xd9, 0xbe, 0xf3, 0x7c, 0x37, 0xbe, 0x2d, 0x63, 0x00, 0xbf,
  0xb7, 0xba, 0x5e, 0xbc, 0xe9, 0xc4, 0x5f, 0xbe, 0xd0, 0x15, 0x1c, 0xbe,
  0xd7, 0x8e, 0x60, 0xbe, 0x23, 0xbb, 0x83, 0xbd, 0x5e, 0x5f, 0x1d, 0x3e,
  0x14, 0xfc, 0x0e, 0x3c, 0xa7, 0x3a, 0xc2, 0xbc, 0x4f, 0x92, 0xff, 0xbc,
  0xc9, 0xdc, 0x59, 0x3d, 0x6e, 0x93, 0xaf, 0x3d, 0x84, 0x88, 0x10, 0xbe,
  0x4e, 0xb2, 0x1b, 0xbd, 0x62, 0x22, 0x09, 0x3e, 0x09, 0x5d, 0x58, 0xbc,
  0x76, 0xaf, 0x1c, 0x3f, 0xf6, 0xd1, 0x82, 0x3d, 0x2c, 0xd8, 0xb3, 0x3d,
  0xae, 0x64, 0x00, 0x3c, 0x69, 0x57, 0x9e, 0xbd, 0x23, 0x21, 0x10, 0xbc,
  0xb0, 0x1f, 0xfe, 0x3d, 0xa7, 0x79, 0x2a, 0xbd, 0xa1, 0x01, 0x01, 0x3f,
  0xb1, 0x28, 0xef, 0xbe, 0x93, 0xad, 0x9a, 0xbd, 0xac, 0x2a, 0xe4, 0xbe,
  0xbd, 0xd8, 0x63, 0x3e, 0x42, 0xab, 0x9e, 0xbe, 0x63, 0xb9, 0x05, 0xbf,
  0x31, 0x69, 0x30, 0xbf, 0xe4, 0xdc, 0xc4, 0x3e, 0x7f, 0x61, 0x28, 0xbf,
  0x59, 0x3c, 0x1b, 0xbe, 0x51, 0x3b, 0xa6, 0xbe, 0x88, 0xe7, 0x49, 0xbe,
  0x48, 0x17, 0xb0, 0xbe, 0xef, 0x0d, 0x16, 0x3e, 0x22, 0x3c, 0x11, 0x3e,
  0xe5, 0x0b, 0x86, 0x3e, 0x5c, 0x6c, 0x25, 0x3d, 0xe7, 0xee, 0x0c, 0x3e,
  0x3b, 0x81, 0xd9, 0xbd, 0x07, 0x3e, 0x3a, 0xbe, 0xcd, 0x96, 0x6f, 0xbd,
  0xb6, 0xf8, 0x31, 0x3c, 0xad, 0x34, 0x6a, 0x3e, 0x8c, 0x1a, 0xa7, 0xbe,
  0x45, 0xa6, 0x2d, 0x3e, 0x01, 0x5b, 0x8e, 0x3d, 0x63, 0x84, 0x94, 0x3d,
  0x03, 0xe5, 0xd5, 0x3c, 0x84, 0xa6, 0x1f, 0x3d, 0xe1, 0xf8, 0xb1, 0xbd,
  0x51, 0xc3, 0x6d, 0x3d, 0xc8, 0x76, 0x30, 0xbe, 0x0e, 0x4d, 0x0d, 0x3d,
  0x77, 0x2e, 0xea, 0x3e, 0x53, 0x96, 0x4b, 0x3c, 0xde, 0x5a, 0x57, 0x3e,
  0xdf, 0x78, 0x23, 0xbe, 0x46, 0x5d, 0x98, 0xbd, 0x0c, 0x27, 0x5d, 0xbc,
  0x5b, 0xc7, 0x33, 0x3e, 0xec, 0x72, 0x51, 0xbe, 0xa1, 0x60, 0x9b, 0xbe,
  0x6c, 0x8a, 0xa2, 0xbd, 0x88, 0xab, 0x46, 0xbd, 0xb4, 0xd8, 0x4a, 0xbe,
  0x56, 0x01, 0x18, 0xbd, 0x22, 0xd9, 0xd7, 0x3e, 0xa0, 0xcf, 0xb0, 0xbe,
  0x25, 0x47, 0xa0, 0xbd, 0xec, 0x97, 0x1b, 0xbe, 0xc8, 0x36, 0x5a, 0xbc,
  0x59, 0x94, 0xee, 0x3d, 0xf4, 0x8b, 0x52, 0xbe, 0x62, 0xe6, 0x4c, 0x3e,
  0x55, 0x12, 0x13, 0xbe, 0xe6, 0xd9, 0x61, 0xbd, 0x84, 0x89, 0x12, 0x3d,
  0x99, 0xa8, 0x77, 0x3b, 0xde, 0x38, 0x15, 0x3d, 0xae, 0xea, 0x61, 0x3d,
  0x01, 0xb6, 0x23, 0xbe, 0xad, 0x31, 0x39, 0xbd, 0x14, 0x91, 0xbc, 0xbc,
  0xa0, 0x72, 0x05, 0xbc, 0x59, 0xd3, 0x9e, 0x3d, 0x86, 0x03, 0xfd, 0xbe,
  0x21, 0xb8, 0x20, 0x3e, 0xbd, 0x5d, 0x85, 0xbe, 0x06, 0x4f, 0x88, 0xbb,
  0xba, 0x4e, 0xe0, 0xbc, 0xb0, 0x93, 0xcb, 0x3d, 0x33, 0x13, 0xac, 0x3d,
  0x7c, 0x66, 0xa3, 0xbe, 0xc8, 0x24, 0x1e, 0xbf, 0x01, 0x35, 0x3b, 0x3e,
  0x99, 0x36, 0xad, 0xbe, 0xc0, 0xe8, 0x02, 0xbd, 0x7c, 0xeb, 0x89, 0x3d,
  0x64, 0xf7, 0x9a, 0x3e, 0xc6, 0xed, 0x2c, 0x3e, 0xd8, 0xb9, 0x66, 0xbe,
  0xfb, 0x81, 0x71, 0xbd, 0x06, 0x3b, 0xc7, 0xbd, 0xdd, 0xc9, 0x4a, 0xbe,
  0x35, 0x0d, 0x46, 0xbd, 0x31, 0x50, 0xbc, 0x3e, 0x85, 0x39, 0x39, 0xbd,
  0x99, 0x1b, 0x1a, 0xbc, 0x70, 0xa9, 0x47, 0xbe, 0x75, 0xc0, 0xc4, 0xbd,
  0xda, 0x25, 0xda, 0xbd, 0x46, 0x28, 0x10, 0xbd, 0x38, 0x27, 0x02, 0xbd,
  0x5b, 0x9d, 0xba, 0x3e, 0x3e, 0x42, 0x45, 0xbd, 0x59, 0x78, 0x83, 0x3e,
  0x9a, 0x96, 0xb9, 0xbd, 0x2a, 0x6c, 0x1c, 0x3e, 0x4a, 0xd8, 0x8c, 0xbc,
  0xac, 0xa3, 0x89, 0xbc, 0x3d, 0xbf, 0xb1, 0xbe, 0xf4, 0xc1, 0x2b, 0x3e,
  0xd6, 0x51, 0xc7, 0xbe, 0xb3, 0x68, 0xcd, 0x3e, 0x80, 0x9f, 0x84, 0xbe,
  0x41, 0x4a, 0xae, 0x3e, 0xcc, 0xa2, 0x76, 0xbe, 0xcf, 0x63, 0x6e, 0xbe,
  0xdc, 0x24, 0xbb, 0xbe, 0x09, 0x3a, 0x02, 0x3e, 0xfb, 0xf7, 0x7f, 0x3d,
  0x2e, 0x9a, 0x3d, 0x3e, 0x2a, 0x49, 0xcd, 0x3d, 0x75, 0xdc, 0x5a, 0x3e,
  0xb1, 0xa9, 0xfd, 0xbd, 0xa5, 0x6c, 0x45, 0xbe, 0x55, 0x2e, 0xa7, 0xbe,
  0xde, 0xd7, 0x3d, 0x3e, 0xf9, 0xca, 0xf1, 0x3b, 0xfd, 0x35, 0x1e, 0x3d,
  0xe1, 0x40, 0xa8, 0x3d, 0x27, 0xb8, 0x63, 0x3e, 0x67, 0x1d, 0x2a, 0xbd,
  0x72, 0x71, 0x20, 0xbe, 0x39, 0x26, 0xbc, 0xbe, 0xc6, 0xb0, 0xde, 0xbb,
  0x0f, 0x2e, 0xc8, 0x3a, 0xe9, 0x7c, 0x65, 0x3e, 0x05, 0xdc, 0x94, 0xbd,
  0x28, 0x66, 0x2d, 0xbe, 0x84, 0x2e, 0x1e, 0xbd, 0x53, 0x95, 0x71, 0x3c,
  0xa4, 0x3e, 0x6e, 0xbe, 0x60, 0x10, 0x2a, 0x3c, 0x99, 0x50, 0xf0, 0x3c,
  0xca, 0xb9, 0xc2, 0x3d, 0x43, 0xbf, 0xee, 0x3d, 0x7e, 0x2f, 0xc8, 0xbe,
  0x1c, 0x24, 0x39, 0x3e, 0xa0, 0x03, 0x80, 0xbe, 0x5e, 0x40, 0xb1, 0xbe,
  0x5e, 0x51, 0x31, 0xbd, 0x02, 0x14, 0x1c, 0x3d, 0x03, 0xdc, 0x9a, 0x3c,
  0x20, 0xa6, 0x91, 0xbb, 0x8a, 0xaa, 0x76, 0x3d, 0x79, 0xf0, 0xd7, 0x3b,
  0xdf, 0x6d, 0xdd, 0x3d, 0x83, 0x74, 0x7e, 0xbe, 0x69, 0x96, 0x7d, 0xbe,
  0x11, 0x74, 0x65, 0x3e, 0x84, 0xea, 0x2d, 0xbd, 0x88, 0x55, 0xab, 0x3d,
  0x70, 0x60, 0x97, 0xbd, 0xe9, 0x77, 0xd3, 0xbd, 0x9f, 0x16, 0x15, 0x3e,
  0x9e, 0x25, 0x6f, 0xbe, 0x27, 0x29, 0x1d, 0xbe, 0x05, 0x35, 0x0e, 0x3e,
  0x60, 0x84, 0xb8, 0x3d, 0x2d, 0xc6, 0x76, 0x3e, 0x0a, 0x73, 0x36, 0x3d,
  0xec, 0xbc, 0x7a, 0x3e, 0xa0, 0x47, 0x34, 0x3d, 0x4e, 0xeb, 0xf9, 0xbc,
  0x3a, 0xb8, 0xb8, 0x3d, 0x3e, 0x26, 0x97, 0xbd, 0xbf, 0x46, 0x4b, 0x3e,
  0xea, 0x21, 0x54, 0x3d, 0x5d, 0x0e, 0x0a, 0x3d, 0x74, 0x46, 0xa0, 0x3d,
  0x75, 0x05, 0x5f, 0xbd, 0xa8, 0x5b, 0x4c, 0xbd, 0x71, 0xc0, 0x11, 0x3e,
  0x3e, 0x58, 0x37, 0xbe, 0xc5, 0x4e, 0x78, 0x3e, 0xf1, 0x3b, 0x2c, 0xbd,
  0x93, 0x5b, 0x9e, 0xbd, 0x30, 0xe9, 0x6a, 0xbe, 0x14, 0xd5, 0x0c, 0xbe,
  0x68, 0x09, 0x19, 0xbd, 0x1c, 0xfb, 0xe9, 0x3d, 0xbc, 0x8e, 0x43, 0xbe,
  0x46, 0x20, 0x82, 0x3d, 0x4b, 0xa9, 0x40, 0xbe, 0xc8, 0xc3, 0x83, 0xbe,
  0x4e, 0x97, 0xbb, 0xbe, 0x35, 0x5a, 0xd4, 0xbd, 0x8f, 0x58, 0x0a, 0xbe,
  0xc2, 0x8a, 0xbf, 0x3c, 0x90, 0x47, 0x48, 0xbe, 0x9b, 0x29, 0x02, 0x3e,
  0x33, 0xbc, 0x33, 0xbe, 0x5b, 0xa7, 0x42, 0xbe, 0x73, 0xce, 0x35, 0xbe,
  0x7b, 0x2d, 0x94, 0xbd, 0xb0, 0x39, 0x18, 0xbd, 0xb5, 0xb5, 0x81, 0xbe,
  0xde, 0x54, 0x55, 0xbe, 0xb7, 0x8b, 0xdd, 0x3d, 0x45, 0x4e, 0x56, 0xbe,
  0x88, 0x8a, 0xf9, 0xbd, 0x49, 0xbf, 0x0a, 0xbe, 0x1b, 0x30, 0x5f, 0xbd,
  0x5d, 0x4d, 0x44, 0xbd, 0x5e, 0xb2, 0x54, 0xbe, 0x3b, 0x47, 0x04, 0xbe,
  0x64, 0xb5, 0xdd, 0xbc, 0x8d, 0x96, 0x25, 0xbe, 0xec, 0x6e, 0xcb, 0xbd,
  0x1b, 0x28, 0xb1, 0xbd, 0x94, 0x79, 0x6b, 0x3b, 0x05, 0x36, 0xdb, 0xbc,
  0xef, 0x48, 0xa0, 0x3e, 0x0f, 0xae, 0x52, 0x3c, 0xcd, 0x92, 0x89, 0xbd,
  0xdb, 0xfc, 0x9b, 0x3e, 0x02, 0x8c, 0xab, 0x3e, 0x2e, 0x83, 0x94, 0x3e,
  0x10, 0xd7, 0xd2, 0xbc, 0xdc, 0xee, 0x4b, 0x3d, 0xcc, 0x83, 0x0e, 0x3e,
  0xfa, 0xaf, 0x65, 0x3e, 0xf8, 0x90, 0x83, 0x3d, 0x9d, 0x71, 0xa4, 0xbe,
  0x57, 0x8b, 0x93, 0xbe, 0xef, 0x9b, 0x2f, 0xbe, 0xc7, 0xa2, 0xf6, 0xbd,
  0xd6, 0xdb, 0x59, 0xbe, 0xaf, 0xce, 0x9d, 0xbe, 0x9b, 0xe6, 0xbe, 0xbe,
  0x93, 0xa4, 0xfa, 0xbe, 0xc9, 0x1b, 0xaf, 0xbd, 0x0e, 0x00, 0x0b, 0x3f,
  0xa0, 0x5f, 0xfa, 0xbd, 0xef, 0x47, 0xbd, 0x3c, 0x43, 0x0b, 0x4f, 0x3d,
  0xf3, 0xa5, 0x2d, 0xbe, 0x7c, 0xbb, 0x6a, 0xbd, 0x02, 0xe8, 0xd6, 0x3d,
  0xac, 0xdf, 0x0e, 0xbe, 0x96, 0x87, 0x40, 0xbe, 0x1c, 0xa3, 0xa5, 0xbd,
  0xde, 0xc0, 0x45, 0xbd, 0xc5, 0xa3, 0xd5, 0xbb, 0xd4, 0x1c, 0x8f, 0x3e,
  0x22, 0x47, 0x28, 0x3c, 0x4a, 0xa7, 0xeb, 0xbe, 0x30, 0x0e, 0x85, 0x3d,
  0xf2, 0x5b, 0xa2, 0xbd, 0xac, 0xf4, 0xf9, 0x3b, 0x30, 0x99, 0x20, 0x3d,
  0x09, 0xb0, 0x19, 0x3c, 0x5c, 0x1c, 0x61, 0xbe, 0x3c, 0xfa, 0x30, 0xbb,
  0x0e, 0xda, 0x67, 0x3d, 0x01, 0x8e, 0xcf, 0xbd, 0xeb, 0x20, 0x29, 0xbc,
  0xbb, 0xee, 0x7c, 0xbd, 0xaf, 0x65, 0x02, 0x3e, 0x32, 0x5c, 0xd8, 0xbd,
  0x5f, 0x8e, 0x17, 0x3e, 0x06, 0x29, 0x92, 0xbe, 0xeb, 0x8b, 0x83, 0x3d,
  0x2a, 0x45, 0x35, 0xbd, 0x1b, 0x56, 0x14, 0xbd, 0x23, 0xc5, 0xff, 0x3d,
  0x63, 0x23, 0x85, 0x3c, 0xcc, 0x89, 0x88, 0xbd, 0xb5, 0x3a, 0x04, 0x3e,
  0x3e, 0xfe, 0xbf, 0x3e, 0xb4, 0xbb, 0x9b, 0xbc, 0x35, 0x00, 0x15, 0x3e,
  0xb2, 0x44, 0x7a, 0xbb, 0x4e, 0xc3, 0x99, 0x3d, 0xdf, 0xca, 0x11, 0xbe,
  0x48, 0x86, 0xf3, 0xbc, 0xf3, 0xfc, 0x99, 0x3e, 0xa0, 0x5c, 0x8d, 0xbe,
  0x81, 0x59, 0x9e, 0x3d, 0xb2, 0x46, 0x23, 0x3d, 0xab, 0xbc, 0x49, 0xbe,
  0x49, 0x73, 0x29, 0xbe, 0x61, 0xde, 0x24, 0xbe, 0xfc, 0x89, 0x92, 0xbc,
  0x38, 0x14, 0x19, 0xbf, 0x16, 0x8c, 0xc8, 0xbe, 0x3c, 0x97, 0x28, 0x3e,
  0xf7, 0x72, 0xca, 0xbe, 0xae, 0x69, 0x4c, 0xbe, 0x29, 0xfa, 0x07, 0xbf,
  0x0f, 0x2a, 0x83, 0xbe, 0xc5, 0x3a, 0xa0, 0xbb, 0x89, 0x84, 0x3b, 0x3f,
  0x26, 0xc0, 0x56, 0xbd, 0x1e, 0x48, 0x3d, 0xbe, 0x54, 0x01, 0xe9, 0xbd,
  0x48, 0xa2, 0x85, 0xbd, 0x06, 0xde, 0xa8, 0xbe, 0x89, 0x95, 0x0f, 0xbe,
  0x26, 0x42, 0x15, 0xbd, 0x2c, 0x26, 0x93, 0x3e, 0xcb, 0xfd, 0xd8, 0xbd,
  0xf3, 0x09, 0x32, 0x3c, 0x84, 0xb3, 0x3d, 0xbd, 0x95, 0x23, 0x8d, 0x3d,
  0x27, 0x5e, 0xa4, 0xbc, 0xc1, 0x86, 0xb8, 0xbc, 0xec, 0x8a, 0x29, 0x3c,
  0x52, 0xaf, 0xc3, 0xbe, 0xfd, 0xca, 0xe3, 0x3d, 0xf3, 0xf5, 0x16, 0xbc,
  0x92, 0xf6, 0xa3, 0x3c, 0x11, 0x39, 0xe8, 0x3d, 0x90, 0xd7, 0x9b, 0x3c,
  0x94, 0xa4, 0x43, 0x3c, 0xad, 0x8a, 0x90, 0x3c, 0x5c, 0xfe, 0x5a, 0x3e,
  0xa7, 0x92, 0xbe, 0xbd, 0xef, 0x2a, 0xc1, 0x3d, 0xd3, 0x11, 0x7e, 0x3e,
  0x17, 0x30, 0x2c, 0xbe, 0x26, 0xdf, 0x7d, 0xbd, 0x89, 0x77, 0x87, 0xbd,
  0xc0, 0x98, 0xb7, 0xbd, 0x99, 0x07, 0xa9, 0xbe, 0x2f, 0x7f, 0xf7, 0xbd,
  0x82, 0x84, 0x03, 0xbe, 0xcf, 0x21, 0xb0, 0x3e, 0xc8, 0xc2, 0x1c, 0xbe,
  0x33, 0xe2, 0x78, 0xbd, 0xa8, 0xf8, 0x17, 0x3d, 0x51, 0x74, 0x7d, 0xbd,
  0x28, 0x8f, 0xe0, 0x3d, 0xc9, 0x4b, 0xb4, 0x3b, 0x39, 0x33, 0x04, 0xbd,
  0x9d, 0x6e, 0x2b, 0xbe, 0x31, 0xa9, 0xbc, 0xbe, 0xbb, 0x11, 0x1a, 0xbc,
  0x57, 0x30, 0xed, 0xbd, 0xe6, 0x08, 0x23, 0x3e, 0x41, 0x01, 0x1a, 0xbe,
  0x4e, 0xf3, 0x3e, 0x3d, 0x99, 0x8c, 0xcf, 0xbd, 0x76, 0x4c, 0x04, 0xbe,
  0x35, 0x56, 0xfc, 0xbe, 0xbe, 0x71, 0xf9, 0xbd, 0x0e, 0x69, 0x4a, 0xbd,
  0x86, 0xc3, 0x80, 0x3e, 0x64, 0x0a, 0xaf, 0x3d, 0x37, 0x58, 0x6a, 0x3d,
  0x28, 0xf5, 0xc3, 0xbe, 0x95, 0x10, 0x29, 0x3e, 0xf3, 0x58, 0x5e, 0xbd,
  0xe0, 0x6f, 0x48, 0xbe, 0xa0, 0xee, 0x29, 0xbe, 0x74, 0x70, 0x37, 0xbd,
  0xf5, 0xe2, 0xac, 0xbd, 0xee, 0x00, 0x9c, 0xbe, 0x35, 0x7c, 0x2a, 0xbe,
  0xdc, 0xc0, 0xdc, 0x3e, 0xa1, 0xfd, 0x63, 0xbe, 0x57, 0x04, 0x92, 0xbe,
  0xa0, 0xc2, 0x2e, 0x3e, 0xd2, 0x78, 0x51, 0x3d, 0xc3, 0x37, 0x15, 0xbe,
  0x95, 0x41, 0x84, 0xbe, 0x4e, 0xc1, 0xce, 0xbc, 0x21, 0xcd, 0x3f, 0xbe,
  0xce, 0xd0, 0x2a, 0xbe, 0xc7, 0x62, 0x60, 0xbe, 0x89, 0x1f, 0x16, 0x3d,
  0x13, 0x82, 0x48, 0x3e, 0x0c, 0x3e, 0x31, 0x3d, 0x92, 0xa9, 0x62, 0xbe,
  0x2e, 0x6e, 0x02, 0x3e, 0x69, 0x65, 0x13, 0xbe, 0x25, 0xa8, 0xf2, 0xbd,
  0x24, 0xcd, 0x8e, 0xbe, 0x3c, 0x02, 0x8e, 0x3d, 0x6a, 0xc0, 0xb1, 0x3d,
  0x37, 0xf9, 0x6f, 0x3d, 0x65, 0x1d, 0x8e, 0xbe, 0xc8, 0x97, 0x6d, 0x3c,
  0xc6, 0xde, 0xff, 0xff, 0x10, 0x00, 0x00, 0x00, 0x08, 0x00, 0x00, 0x00,
  0x1c, 0x00, 0x00, 0x00, 0x38, 0x00, 0x00, 0x00, 0x04, 0x00, 0x00, 0x00,
  0x10, 0x00, 0x00, 0x00, 0x04, 0x00, 0x00, 0x00, 0x01, 0x00, 0x00, 0x00,
  0x08, 0x00, 0x00, 0x00, 0x1a, 0x00, 0x00, 0x00, 0x73, 0x65, 0x71, 0x75,
  0x65, 0x6e, 0x74, 0x69, 0x61, 0x6c, 0x2f, 0x63, 0x6f, 0x6e, 0x76, 0x32,
  0x64, 0x5f, 0x31, 0x2f, 0x43, 0x6f, 0x6e, 0x76, 0x32, 0x44, 0x00, 0x00,
  0xc0, 0xde, 0xff, 0xff, 0xb6, 0xdf, 0xff, 0xff, 0x04, 0x00, 0x00, 0x00,
  0x80, 0x01, 0x00, 0x00, 0xe8, 0xe4, 0xa3, 0x3c, 0x33, 0x99, 0xd1, 0x3d,
  0xa3, 0x9d, 0xa7, 0xbe, 0x8d, 0x6e, 0xad, 0xbd, 0x2d, 0xf9, 0xa1, 0xbd,
  0xd0, 0x50, 0xd0, 0x3d, 0x78, 0x14, 0xd4, 0x3c, 0x78, 0xde, 0x35, 0xbe,
  0x15, 0x71, 0x8f, 0x3d, 0x9e, 0x7f, 0xb9, 0xbd, 0x50, 0x65, 0x83, 0xbd,
  0x99, 0x06, 0x1c, 0x3d, 0x64, 0x81, 0xd0, 0xbe, 0x59, 0xf3, 0xd3, 0x3e,
  0x60, 0x4a, 0xee, 0xbc, 0xca, 0x53, 0xac, 0x3e, 0x80, 0x0c, 0xe2, 0xbd,
  0x8f, 0xbb, 0x83, 0xbd, 0x4a, 0xaa, 0x4c, 0x3a, 0xd8, 0x1e, 0xae, 0xbe,
  0x01, 0x8d, 0xd2, 0x3d, 0x50, 0x17, 0x39, 0xbd, 0x54, 0x47, 0x8b, 0xba,
  0xc2, 0xb7, 0x59, 0xbe, 0x18, 0x3f, 0x21, 0xbc, 0xfb, 0x4e, 0x09, 0x3e,
  0x7e, 0xbb, 0x6e, 0xbe, 0x23, 0x2b, 0x2b, 0xbd, 0x00, 0x58, 0xa9, 0x3d,
  0x31, 0x03, 0x07, 0xbe, 0xe0, 0x82, 0x94, 0xbc, 0x71, 0x6c, 0x2a, 0xbe,
  0x32, 0x63, 0x3e, 0x3d, 0x8e, 0x20, 0x59, 0x3e, 0x19, 0x32, 0x33, 0xbe,
  0x96, 0x67, 0x95, 0x3d, 0xb3, 0xf9, 0xc8, 0xbd, 0xd0, 0x3d, 0xa2, 0xbd,
  0x3c, 0x5f, 0xda, 0xbd, 0x85, 0x37, 0x16, 0xbe, 0x2a, 0x04, 0xbf, 0x3d,
  0x33, 0xad, 0xe5, 0xbd, 0x91, 0x6e, 0x8e, 0x3d, 0x3d, 0x42, 0x24, 0x3e,
  0x5f, 0x59, 0xb1, 0xbd, 0x0f, 0x52, 0xaf, 0xbd, 0x3b, 0x20, 0x47, 0xbd,
  0x74, 0x07, 0x07, 0xbe, 0x58, 0xd7, 0xb1, 0xbd, 0x1b, 0xb5, 0xc5, 0xbc,
  0xe0, 0xa2, 0x65, 0x3d, 0x32, 0x0f, 0x72, 0xbd, 0x55, 0xc7, 0xd3, 0x3a,
  0x52, 0x99, 0x24, 0x3d, 0xce, 0x52, 0x83, 0xbd, 0xca, 0xb7, 0xc6, 0x3c,
  0x42, 0x51, 0xae, 0x3b, 0xba, 0xda, 0xac, 0xbd, 0x35, 0xbb, 0x86, 0x3d,
  0x7d, 0x1d, 0x45, 0x3c, 0x53, 0x33, 0x24, 0x3e, 0x75, 0xcb, 0x3a, 0x3e,
  0xb7, 0x55, 0x3b, 0xbd, 0xcd, 0xe1, 0xca, 0x3e, 0xe2, 0xd2, 0x93, 0x3e,
  0x64, 0x2f, 0x52, 0xbd, 0x78, 0x62, 0x61, 0xbe, 0xc9, 0x4f, 0xa3, 0xbd,
  0xf7, 0x1a, 0x03, 0x3c, 0xdc, 0x50, 0xa8, 0xbe, 0xcc, 0xbb, 0xbe, 0xbe,
  0x2d, 0x83, 0x03, 0x3e, 0x75, 0x4e, 0x99, 0x3d, 0x8e, 0x0d, 0x01, 0x3e,
  0x6e, 0xe2, 0xa2, 0x3d, 0xd9, 0x53, 0x0c, 0xbd, 0x3a, 0x43, 0x30, 0x3e,
  0x3a, 0x9e, 0xce, 0x3d, 0xd5, 0xe4, 0xc0, 0x3d, 0x14, 0x81, 0xc2, 0x3d,
  0xf3, 0x03, 0x1e, 0xbe, 0x60, 0x05, 0x04, 0x3d, 0xdb, 0xf7, 0xba, 0xbe,
  0xc4, 0x73, 0x54, 0xbe, 0x3b, 0x57, 0xed, 0xbe, 0x76, 0x7c, 0x08, 0xbe,
  0x2d, 0x28, 0x11, 0x3e, 0x7d, 0x9d, 0x8c, 0xbe, 0xcf, 0x28, 0x28, 0xbe,
  0x5e, 0x33, 0xfd, 0xbd, 0x15, 0xdd, 0x8a, 0x3e, 0x34, 0xa9, 0xad, 0x3c,
  0xba, 0x3f, 0x2f, 0xbe, 0xf6, 0x0b, 0xf8, 0x3e, 0xc0, 0xc7, 0x90, 0x3e,
  0xee, 0x9e, 0x02, 0x3e, 0x9e, 0xe0, 0xff, 0xff, 0x10, 0x00, 0x00, 0x00,
  0x07, 0x00, 0x00, 0x00, 0x1c, 0x00, 0x00, 0x00, 0x38, 0x00, 0x00, 0x00,
  0x04, 0x00, 0x00, 0x00, 0x08, 0x00, 0x00, 0x00, 0x04, 0x00, 0x00, 0x00,
  0x03, 0x00, 0x00, 0x00, 0x01, 0x00, 0x00, 0x00, 0x18, 0x00, 0x00, 0x00,
  0x73, 0x65, 0x71, 0x75, 0x65, 0x6e, 0x74, 0x69, 0x61, 0x6c, 0x2f, 0x63,
  0x6f, 0x6e, 0x76, 0x32, 0x64, 0x2f, 0x43, 0x6f, 0x6e, 0x76, 0x32, 0x44,
  0x00, 0x00, 0x00, 0x00, 0x98, 0xe0, 0xff, 0xff, 0x8e, 0xe1, 0xff, 0xff,
  0x04, 0x00, 0x00, 0x00, 0x00, 0x01, 0x00, 0x00, 0x1a, 0xda, 0x75, 0x3e,
  0x38, 0x78, 0x7d, 0x3e, 0x69, 0xaa, 0xdb, 0x3d, 0xf1, 0x86, 0x29, 0xbd,
  0x97, 0xa7, 0x2f, 0x3c, 0x75, 0xea, 0x3a, 0x3e, 0x55, 0xfd, 0x7b, 0xbe,
  0x76, 0xcd, 0xc4, 0xbc, 0x20, 0xbb, 0x35, 0x3d, 0xb7, 0x29, 0x73, 0xbe,
  0x2c, 0xa5, 0xf1, 0xbd, 0x13, 0x18, 0x68, 0x3e, 0x9c, 0x92, 0x23, 0x3e,
  0x97, 0x79, 0x00, 0xbe, 0x06, 0x69, 0x1d, 0x3e, 0x3b, 0x1e, 0x20, 0xbe,
  0xc3, 0xd2, 0x8b, 0x3e, 0xfe, 0xfa, 0x95, 0x3e, 0x4d, 0xb7, 0x66, 0x3d,
  0x3a, 0x43, 0x78, 0xbd, 0x4a, 0xf6, 0x13, 0x3d, 0x38, 0x43, 0x56, 0x3e,
  0xb1, 0xe9, 0x5a, 0xbe, 0x7d, 0xcd, 0xcc, 0xbe, 0x20, 0xbf, 0xa9, 0xbb,
  0x2c, 0xea, 0x3a, 0xbe, 0xa9, 0xff, 0x8e, 0x3b, 0x9c, 0x00, 0x69, 0x3e,
  0x19, 0x20, 0x65, 0x3e, 0x27, 0xab, 0xf6, 0xbc, 0x2c, 0xc7, 0x07, 0x3e,
  0x5f, 0x75, 0x0c, 0xbe, 0x20, 0x56, 0x8e, 0xbe, 0x81, 0xd1, 0xa3, 0x3e,
  0x6c, 0x8a, 0x04, 0x3e, 0x2f, 0x8d, 0xe3, 0xbd, 0x90, 0x2c, 0x12, 0xbe,
  0x29, 0xa9, 0x7b, 0x3e, 0x54, 0x7f, 0x8b, 0xbe, 0xd7, 0xc1, 0xc5, 0xbd,
  0x5b, 0x42, 0x27, 0x3c, 0xf6, 0x5d, 0x87, 0xbe, 0xf1, 0x96, 0xc0, 0x3c,
  0xca, 0x01, 0x21, 0x3e, 0x8f, 0x4d, 0x43, 0x3e, 0x17, 0x1e, 0x45, 0x3c,
  0xbf, 0xcf, 0x56, 0x3e, 0x9a, 0xaf, 0xcc, 0xbd, 0x47, 0xf7, 0x3d, 0x3e,
  0x2b, 0x27, 0x63, 0x3e, 0x5b, 0x54, 0x5e, 0xbe, 0x9b, 0x3e, 0xdc, 0xbe,
  0x9b, 0x2b, 0x60, 0xbe, 0xba, 0xb6, 0xfa, 0x3d, 0xc2, 0x73, 0x8d, 0xbe,
  0xe3, 0xe9, 0x09, 0xbe, 0x16, 0x0d, 0xc1, 0xbd, 0xa4, 0x8b, 0x33, 0xbe,
  0x4b, 0xd7, 0x45, 0xbd, 0x9e, 0x08, 0x55, 0x3d, 0x3e, 0x7b, 0xc4, 0x3d,
  0x6d, 0xbf, 0x11, 0xbe, 0x13, 0xc7, 0x2b, 0xbf, 0x77, 0xc4, 0x4b, 0xbe,
  0xf6, 0xe1, 0xff, 0xff, 0x10, 0x00, 0x00, 0x00, 0x06, 0x00, 0x00, 0x00,
  0x14, 0x00, 0x00, 0x00, 0x30, 0x00, 0x00, 0x00, 0x02, 0x00, 0x00, 0x00,
  0x04, 0x00, 0x00, 0x00, 0x10, 0x00, 0x00, 0x00, 0x19, 0x00, 0x00, 0x00,
  0x73, 0x65, 0x71, 0x75, 0x65, 0x6e, 0x74, 0x69, 0x61, 0x6c, 0x2f, 0x64,
  0x65, 0x6e, 0x73, 0x65, 0x5f, 0x31, 0x2f, 0x4d, 0x61, 0x74, 0x4d, 0x75,
  0x6c, 0x00, 0x00, 0x00, 0xe8, 0xe1, 0xff, 0xff, 0xde, 0xe2, 0xff, 0xff,
  0x04, 0x00, 0x00, 0x00, 0x00, 0x1c, 0x00, 0x00, 0xc9, 0x8a, 0x9a, 0xbe,
  0x26, 0x43, 0x25, 0xbe, 0xd9, 0xc6, 0x05, 0xbb, 0x79, 0x29, 0x19, 0xbf,
  0xdd, 0x31, 0xbc, 0xbd, 0xab, 0x3e, 0x18, 0xbd, 0x61, 0x0e, 0x6f, 0xbe,
  0x69, 0x37, 0xf6, 0x3b, 0x6b, 0xc8, 0x6a, 0xbc, 0x6b, 0x2b, 0xc8, 0xbe,
  0x5b, 0xca, 0x9d, 0xbd, 0x79, 0xfd, 0xcd, 0xbd, 0xbc, 0xed, 0x55, 0xbe,
  0xfe, 0xdc, 0x08, 0xbe, 0xcb, 0x8a, 0x0a, 0xbf, 0x22, 0x68, 0x00, 0xbf,
  0x5c, 0x6b, 0x05, 0xbe, 0xde, 0xbe, 0xfc, 0xbc, 0x51, 0xa0, 0x15, 0x3e,
  0x6f, 0xcd, 0x98, 0xbe, 0x43, 0x8a, 0x38, 0x3f, 0xec, 0x79, 0x49, 0x3c,
  0x2d, 0xa5, 0xc2, 0xbe, 0xa2, 0x4b, 0x58, 0x3d, 0xaf, 0x86, 0x9b, 0xbd,
  0x6a, 0x9b, 0x27, 0xbe, 0xf2, 0x65, 0x7d, 0xbe, 0x8b, 0x5f, 0x41, 0x3e,
  0x0b, 0x24, 0x88, 0xbd, 0x29, 0xa1, 0xcd, 0xbc, 0xdb, 0x01, 0xa1, 0xbe,
  0x51, 0xe1, 0xa7, 0x3d, 0xf8, 0xa1, 0x87, 0xbe, 0x9c, 0x93, 0x5b, 0x3c,
  0xf5, 0x2d, 0x09, 0x3d, 0x2f, 0xfd, 0x9c, 0xbe, 0x4e, 0x51, 0x96, 0x3e,
  0xdb, 0x98, 0xab, 0xbb, 0x1f, 0xba, 0x51, 0xbe, 0xa9, 0x9a, 0xb6, 0x3d,
  0xda, 0x41, 0x4f, 0x3d, 0x43, 0x57, 0x90, 0xbe, 0xf6, 0xb6, 0x97, 0xbe,
  0x53, 0x29, 0x9d, 0x3e, 0x53, 0xc3, 0xe1, 0xbd, 0x30, 0xc0, 0x3a, 0xbe,
  0xfe, 0x10, 0x96, 0xbe, 0xf8, 0x2a, 0xa8, 0x3a, 0x14, 0xe5, 0xa8, 0xbd,
  0xcc, 0x93, 0xc5, 0xbd, 0x61, 0x0c, 0xee, 0xbd, 0x6e, 0xbd, 0xb1, 0xbe,
  0xd2, 0x0c, 0xcf, 0x3e, 0x5d, 0x7e, 0x03, 0xbc, 0x90, 0x4a, 0xb9, 0xbe,
  0xca, 0x6f, 0xce, 0xbd, 0x2d, 0x9f, 0xff, 0xbc, 0x00, 0x86, 0x8f, 0xbd,
  0x6e, 0x01, 0xdc, 0xbe, 0xaf, 0xa6, 0x25, 0x3f, 0x67, 0x6d, 0x5b, 0xbe,
  0xe6, 0x60, 0xf0, 0xbd, 0xa9, 0x5c, 0xae, 0xbd, 0xf8, 0x26, 0xfd, 0xbc,
  0x09, 0x73, 0x17, 0x3e, 0x0c, 0xec, 0x99, 0xbd, 0xc7, 0x5d, 0xe6, 0x3e,
  0xe8, 0x87, 0x66, 0xbd, 0x76, 0x74, 0x0a, 0x3f, 0x96, 0xa4, 0x27, 0xbe,
  0xba, 0x7d, 0xa7, 0xbd, 0x43, 0x1f, 0xaf, 0xbd, 0x48, 0x57, 0x2f, 0x3c,
  0xad, 0xb5, 0x24, 0xbe, 0x28, 0x6c, 0x9e, 0xbd, 0xb5, 0x95, 0xf5, 0x3e,
  0x8f, 0xe6, 0xd2, 0x3c, 0xbe, 0x34, 0x86, 0x3e, 0x80, 0x3f, 0xcf, 0xbd,
  0x7d, 0xfa, 0x9e, 0xbc, 0x59, 0x3c, 0x8c, 0xbe, 0x1f, 0x7d, 0x3c, 0x3d,
  0x3a, 0x4c, 0x83, 0x3e, 0xeb, 0x10, 0x77, 0xbd, 0x8d, 0x43, 0xba, 0x3e,
  0xb2, 0x8c, 0xb1, 0xbd, 0x88, 0x7e, 0x9e, 0x3e, 0x7b, 0xb0, 0xf3, 0x3d,
  0xba, 0xde, 0xf0, 0x3d, 0x37, 0xef, 0x9a, 0xbe, 0x41, 0x8f, 0xbc, 0x3d,
  0x06, 0xd7, 0xcd, 0x3e, 0xc2, 0x04, 0xa2, 0x3d, 0x36, 0xf7, 0x21, 0x3e,
  0xcc, 0xc3, 0x66, 0xbd, 0x80, 0xa6, 0xa8, 0xbd, 0x34, 0xc2, 0x7d, 0xbe,
  0xec, 0x5d, 0x08, 0x3e, 0x2f, 0x95, 0xe5, 0xbb, 0xf6, 0x80, 0x89, 0xbc,
  0x3c, 0xa2, 0xfc, 0x3d, 0x06, 0xec, 0xe4, 0xbe, 0x7e, 0x10, 0x2d, 0x3d,
  0x7e, 0x7d, 0x22, 0xbe, 0xf4, 0x62, 0x45, 0xbd, 0x4d, 0x24, 0x06, 0xbd,
  0x5a, 0x67, 0xf3, 0xbd, 0x8b, 0x0d, 0x57, 0x3e, 0x27, 0xfa, 0xbc, 0xbd,
  0x46, 0xd7, 0x91, 0xbc, 0x23, 0x96, 0xa0, 0xbd, 0x16, 0xeb, 0x8f, 0xbd,
  0xc4, 0x11, 0x70, 0xbd, 0x95, 0x14, 0x70, 0x3d, 0xca, 0xd9, 0xdd, 0x3d,
  0xdf, 0x07, 0x21, 0xbf, 0x9b, 0x88, 0x05, 0x3e, 0x02, 0x59, 0x8d, 0x3d,
  0xbe, 0x98, 0x81, 0xbe, 0x9a, 0x1b, 0xa9, 0xbe, 0x91, 0x64, 0x17, 0x3e,
  0x43, 0x93, 0x1c, 0xbe, 0xc7, 0x14, 0x19, 0x3d, 0xa3, 0x4d, 0x31, 0x3e,
  0x53, 0xc6, 0x88, 0xbe, 0x1e, 0x0e, 0x40, 0xbf, 0xb9, 0x7d, 0xb2, 0xbb,
  0x6a, 0xb0, 0xa2, 0x3d, 0x63, 0xcb, 0xa5, 0x3d, 0xb3, 0xd5, 0xac, 0x3a,
  0xdb, 0xe9, 0x0e, 0x3e, 0x2e, 0xce, 0xe2, 0xbe, 0xf4, 0x7c, 0x8b, 0xbe,
  0xe8, 0x8e, 0xaf, 0x3d, 0xf5, 0xeb, 0xd8, 0xbd, 0x14, 0x76, 0x3c, 0xbf,
  0xed, 0xc9, 0x89, 0x3e, 0xed, 0x3e, 0xbb, 0xbe, 0x30, 0xbb, 0x94, 0xbd,
  0x97, 0xdd, 0x81, 0xbe, 0x1d, 0x80, 0x6a, 0x3e, 0x69, 0x81, 0x11, 0xbf,
  0xeb, 0x65, 0x9d, 0x3d, 0xaa, 0x91, 0xe4, 0x3d, 0xb0, 0x06, 0xa0, 0xbd,
  0xdb, 0xfe, 0x97, 0x3e, 0xa6, 0xcf, 0x01, 0xbe, 0x34, 0x73, 0xb9, 0xbe,
  0xe7, 0x0e, 0x07, 0xbe, 0x7a, 0x68, 0x6b, 0xbd, 0x97, 0xe9, 0x58, 0x3e,
  0x80, 0x40, 0x95, 0xbf, 0x6a, 0x68, 0x0f, 0x3e, 0x9f, 0xc3, 0x36, 0xbe,
  0x3d, 0xbe, 0xaa, 0xbd, 0x0b, 0x45, 0x38, 0xbe, 0x16, 0xc5, 0x3c, 0x3e,
  0x73, 0x26, 0xc4, 0xbe, 0xc7, 0x8c, 0x03, 0x3c, 0xe0, 0x0d, 0x51, 0x3d,
  0xb0, 0x81, 0x59, 0xbd, 0x0b, 0xb2, 0x96, 0xbe, 0x88, 0x98, 0xbb, 0x3e,
  0x74, 0x02, 0x3a, 0xbd, 0x4e, 0x5b, 0xc8, 0x3b, 0x48, 0xb2, 0x02, 0x3d,
  0x0c, 0x95, 0xc8, 0x3c, 0x0c, 0x27, 0x6b, 0xbf, 0xc0, 0x1e, 0xcb, 0x3d,
  0xc5, 0x2c, 0x92, 0xbe, 0x21, 0x80, 0x57, 0xbd, 0x3e, 0x68, 0xb3, 0xbe,
  0xdb, 0x64, 0x67, 0xbd, 0x6c, 0xe3, 0xaf, 0xbd, 0x2c, 0x2b, 0x4e, 0xbb,
  0x27, 0xb8, 0x02, 0x3d, 0x24, 0x42, 0x09, 0x3d, 0xc9, 0x6c, 0x03, 0x3e,
  0x29, 0x4c, 0xeb, 0x3e, 0xa5, 0x64, 0x61, 0xbe, 0xe2, 0x6f, 0xdd, 0x3e,
  0x9f, 0x76, 0x29, 0x3c, 0x22, 0x9d, 0x10, 0x3d, 0x91, 0xf9, 0xb2, 0xbe,
  0x17, 0x3d, 0xc9, 0x3d, 0xe2, 0x3b, 0x0b, 0xbe, 0xf4, 0x3a, 0x81, 0xbe,
  0x36, 0x48, 0x9f, 0xbe, 0xb1, 0xc0, 0x82, 0x3d, 0xee, 0x9d, 0x4c, 0xbe,
  0xd9, 0xd4, 0x55, 0x3c, 0xbb, 0x7b, 0x1d, 0xbd, 0xe9, 0x71, 0xc8, 0xbd,
  0x23, 0xe9, 0x88, 0x3e, 0x22, 0x2a, 0x86, 0xbe, 0xdc, 0x81, 0x84, 0xbf,
  0x5e, 0x87, 0x24, 0xbc, 0xa6, 0x02, 0xae, 0x3d, 0x9d, 0xb0, 0x00, 0xbe,
  0x46, 0xa3, 0x16, 0xbe, 0x01, 0xa1, 0x8a, 0x3e, 0xf6, 0x20, 0x9f, 0xbe,
  0x92, 0xb2, 0x61, 0xbf, 0xbb, 0x99, 0x96, 0xbd, 0x62, 0x27, 0x5e, 0xbe,
  0xdc, 0xca, 0x14, 0xbf, 0xe7, 0x63, 0x96, 0x3c, 0xc2, 0xd2, 0x17, 0x3c,
  0xb9, 0x62, 0xc0, 0x3d, 0xd5, 0x4e, 0x45, 0x3e, 0x9d, 0xf5, 0xa8, 0x3a,
  0x6d, 0x33, 0xba, 0xbd, 0xbd, 0xe8, 0xe8, 0x3d, 0xed, 0x78, 0x1c, 0x3e,
  0x72, 0x08, 0x31, 0xbc, 0x61, 0x61, 0xe2, 0xbe, 0x47, 0xc4, 0xb9, 0x3d,
  0xa8, 0x29, 0x8b, 0x3d, 0x09, 0x32, 0xa0, 0xbd, 0x33, 0x71, 0xe2, 0x3d,
  0x8a, 0x69, 0xe2, 0xbc, 0xa0, 0x10, 0xae, 0xbd, 0x4b, 0x38, 0x37, 0x3d,
  0x1b, 0xff, 0xa8, 0x3d, 0x3f, 0xa2, 0x33, 0xbd, 0xc6, 0x8d, 0x50, 0xbd,
  0x6d, 0x04, 0xd5, 0xbd, 0xd3, 0xd2, 0xca, 0xbd, 0x1f, 0xd6, 0x1e, 0xbe,
  0x83, 0x78, 0x82, 0xbe, 0xf0, 0xd8, 0xc2, 0xbe, 0x52, 0x2b, 0x4c, 0x3d,
  0xb9, 0x81, 0x93, 0x3d, 0xf9, 0x93, 0x55, 0xbe, 0x22, 0x64, 0x8f, 0xbd,
  0x79, 0x2c, 0x02, 0x3d, 0x67, 0xc7, 0x4c, 0xbd, 0x69, 0xb6, 0xbc, 0xbc,
  0x33, 0x15, 0x21, 0x3d, 0x08, 0x4b, 0x8c, 0xbe, 0xff, 0x7c, 0x2a, 0xbe,
  0xbd, 0x38, 0x9e, 0x3d, 0x74, 0x8b, 0x8c, 0x3e, 0x5b, 0x4c, 0x1e, 0xbe,
  0x15, 0xfc, 0x5c, 0x3e, 0x75, 0xe1, 0x48, 0x3e, 0xd1, 0x8d, 0xb7, 0xbe,
  0x85, 0xa8, 0x9d, 0x3e, 0x78, 0xdb, 0x8e, 0x3d, 0x00, 0x6f, 0xf2, 0xbd,
  0xe5, 0x9d, 0x89, 0xbd, 0xf3, 0x63, 0x0e, 0x3f, 0x47, 0x07, 0xe1, 0x3d,
  0x6d, 0xf3, 0x72, 0xbe, 0xe2, 0xa4, 0xda, 0x3d, 0x97, 0x0b, 0x4d, 0x3e,
  0xc2, 0x90, 0x38, 0xbe, 0xc5, 0xa1, 0xfa, 0xbc, 0xbe, 0xb3, 0x79, 0xbd,
  0x24, 0xe8, 0xd1, 0x3c, 0x32, 0xcf, 0x1a, 0x3e, 0x49, 0x24, 0xde, 0xbd,
  0x3d, 0xfd, 0xbb, 0xbc, 0x77, 0x7c, 0x36, 0x3f, 0xad, 0xc5, 0x93, 0x3e,
  0xf6, 0xa0, 0xd5, 0x3c, 0xd6, 0xce, 0x50, 0xbe, 0xc6, 0x49, 0xaa, 0x3f,
  0x18, 0xa6, 0x59, 0x3e, 0x63, 0x15, 0x2f, 0x3d, 0x8f, 0x85, 0xf0, 0x3c,
  0xc0, 0x25, 0xfb, 0x3b, 0x4f, 0xf8, 0x1e, 0xbe, 0xf7, 0xd9, 0xdf, 0xbc,
  0x40, 0xc4, 0xcb, 0xbc, 0x88, 0xa9, 0x95, 0xbd, 0xb6, 0x8d, 0x8f, 0x3f,
  0xc9, 0xf9, 0x85, 0xbd, 0x0e, 0x2f, 0xea, 0xbd, 0x07, 0xfe, 0x0c, 0x3f,
  0x7f, 0x99, 0x12, 0x3e, 0x80, 0xca, 0x2c, 0x3e, 0x7d, 0x04, 0xda, 0x3c,
  0xf5, 0x3e, 0xa4, 0x3e, 0x92, 0x72, 0xab, 0xbd, 0x1a, 0x87, 0x24, 0x3e,
  0xc0, 0x34, 0xae, 0x3d, 0x68, 0x34, 0xa6, 0xbc, 0x9c, 0xc9, 0xaa, 0x3d,
  0xc6, 0xe3, 0x32, 0xbe, 0xc1, 0x09, 0x0f, 0xbe, 0x67, 0xd5, 0x1c, 0xbd,
  0xc8, 0xcc, 0xb6, 0x3d, 0x47, 0x61, 0xf3, 0x3d, 0x7c, 0x45, 0x6d, 0xbe,
  0xa3, 0x3a, 0x9f, 0x3e, 0xdf, 0x31, 0xd4, 0x3d, 0xb9, 0x11, 0xbc, 0xbd,
  0xb2, 0x19, 0x8c, 0xbd, 0x80, 0x66, 0x98, 0x3f, 0xeb, 0xe9, 0x02, 0x3e,
  0xde, 0x75, 0x4b, 0x3e, 0xdc, 0xa1, 0xa8, 0xbb, 0xa2, 0x70, 0x69, 0x3e,
  0x49, 0x5e, 0x3f, 0x3e, 0x14, 0xe7, 0x06, 0x3e, 0x21, 0xfe, 0xe5, 0xbd,
  0x31, 0xbe, 0x6d, 0xbd, 0xb5, 0x51, 0x5a, 0x3e, 0x7f, 0x94, 0x1f, 0x3e,
  0xad, 0x8e, 0x27, 0xbd, 0xd6, 0x6f, 0x6a, 0x3e, 0xa6, 0xff, 0x72, 0x3e,
  0x08, 0x61, 0x13, 0xbd, 0x57, 0x18, 0x56, 0xbe, 0xce, 0x59, 0x1b, 0x3f,
  0x81, 0x03, 0x80, 0xbd, 0xaf, 0xbb, 0xf8, 0xbd, 0xdf, 0x2d, 0x90, 0xbe,
  0xfc, 0x55, 0x8e, 0x3d, 0x40, 0x5a, 0x64, 0xbb, 0xb7, 0xd6, 0xd4, 0x3d,
  0x93, 0xf4, 0xd6, 0xbc, 0x44, 0x21, 0x96, 0x3d, 0xef, 0x18, 0xe0, 0xbb,
  0x1b, 0x55, 0xa9, 0x3d, 0xd1, 0x31, 0xe1, 0xbd, 0xac, 0xb0, 0x76, 0x3d,
  0x38, 0xc1, 0xfc, 0x3d, 0x22, 0xeb, 0x8f, 0xbe, 0x30, 0x1f, 0x96, 0x3b,
  0x5f, 0x74, 0xf0, 0x3d, 0xb7, 0x5e, 0x0b, 0xbe, 0xe5, 0x4f, 0x83, 0xbd,
  0xba, 0x36, 0x55, 0x3e, 0xd6, 0xbd, 0xaf, 0xbd, 0xe6, 0x99, 0xa5, 0xbe,
  0xc3, 0x81, 0xdf, 0xbd, 0x26, 0xe6, 0x03, 0x3e, 0xd2, 0x07, 0x5b, 0xbe,
  0xa4, 0x64, 0x6d, 0xbe, 0xcd, 0xe5, 0x33, 0xbe, 0x44, 0xfc, 0x83, 0xbd,
  0x73, 0x23, 0x5c, 0xbe, 0x47, 0xb7, 0xda, 0xbd, 0x65, 0x85, 0xba, 0xbe,
  0x98, 0xc4, 0x1a, 0xbe, 0xd5, 0xec, 0x9c, 0x3d, 0x27, 0x8d, 0x26, 0xbe,
  0x69, 0x5a, 0xa7, 0xbd, 0x16, 0x5a, 0xf6, 0xbd, 0xd5, 0x7c, 0x1f, 0xbe,
  0x46, 0xcb, 0xa7, 0xbd, 0xd0, 0xbb, 0xff, 0x3d, 0x60, 0x3b, 0x88, 0xbe,
  0xb4, 0x9d, 0x69, 0xbe, 0x4e, 0x00, 0x20, 0x3e, 0xe7, 0xf6, 0xf1, 0x3c,
  0xc9, 0x71, 0x96, 0xbc, 0x16, 0xe0, 0xed, 0xbd, 0x0d, 0x4b, 0xd0, 0xbd,
  0x70, 0xec, 0x31, 0xbe, 0x85, 0xc3, 0x2e, 0xbd, 0xa2, 0xbc, 0x38, 0x3d,
  0x62, 0x54, 0xa0, 0x3d, 0x98, 0x8e, 0xcf, 0xbd, 0xc9, 0x88, 0xa2, 0xbd,
  0x54, 0xe8, 0x55, 0x3d, 0x33, 0xdb, 0xcc, 0xbd, 0x5a, 0xea, 0x74, 0xbd,
  0x20, 0xc8, 0x6a, 0xba, 0x2a, 0xcc, 0xae, 0x3c, 0x8d, 0x60, 0xc3, 0xbd,
  0xe0, 0xca, 0x85, 0xbd, 0x26, 0x3f, 0xdc, 0xbd, 0x57, 0x05, 0x0c, 0xbd,
  0x90, 0xe6, 0x41, 0xbd, 0x4d, 0x2c, 0x2d, 0xbe, 0xf0, 0x5a, 0x3e, 0x3c,
  0x63, 0xd5, 0x50, 0xbe, 0xa4, 0xc7, 0x96, 0x3e, 0x94, 0xfc, 0x83, 0xbe,
  0xad, 0xeb, 0xa3, 0xbe, 0x42, 0xef, 0x1d, 0xbd, 0x01, 0x51, 0x11, 0xbe,
  0x4e, 0x87, 0x0b, 0x3e, 0x06, 0x85, 0x7d, 0xbe, 0x20, 0x3c, 0x58, 0x3d,
  0x7b, 0x9d, 0x62, 0x3e, 0xc6, 0x52, 0x9a, 0xbe, 0xe6, 0xc0, 0x8a, 0xbe,
  0x7b, 0x9c, 0x35, 0xbe, 0x59, 0x18, 0x87, 0x3d, 0x16, 0x41, 0x0c, 0x3e,
  0x4e, 0x8a, 0x51, 0xbe, 0xa2, 0xde, 0x20, 0x3e, 0x59, 0xac, 0xc5, 0x3e,
  0xc6, 0x98, 0xcf, 0xbd, 0x84, 0x8a, 0xae, 0xbe, 0x5b, 0x0c, 0x03, 0xbe,
  0x69, 0xf8, 0x82, 0xbd, 0x1c, 0xec, 0x0a, 0xbe, 0x7f, 0x0e, 0xa9, 0xbe,
  0x76, 0x95, 0x66, 0xbc, 0xba, 0x9b, 0x8f, 0xbd, 0x07, 0x85, 0x9a, 0xbe,
  0x25, 0x78, 0x7a, 0xbe, 0x93, 0xab, 0x6c, 0xbd, 0x08, 0x75, 0x7f, 0xbe,
  0xc3, 0xa7, 0x47, 0x3d, 0x48, 0xa9, 0x80, 0x3d, 0x6c, 0x49, 0xe2, 0x3c,
  0x9a, 0x31, 0xd8, 0x3d, 0x42, 0x66, 0x7b, 0xbd, 0x9e, 0x84, 0x86, 0xbe,
  0xdf, 0xec, 0x5b, 0x3c, 0x92, 0x29, 0xac, 0xbc, 0x4d, 0xc7, 0x24, 0xbe,
  0x92, 0x30, 0xee, 0xbd, 0xd9, 0xc2, 0xa5, 0xbd, 0x85, 0x9f, 0xdf, 0xbd,
  0x92, 0x96, 0x3e, 0xbd, 0x87, 0xb8, 0xb4, 0xbe, 0xd7, 0x0c, 0xc6, 0xbe,
  0x17, 0x79, 0x2c, 0xbe, 0xe0, 0x77, 0x5d, 0x3e, 0xc2, 0x96, 0x05, 0x3e,
  0xe1, 0x5d, 0x97, 0xbe, 0x79, 0x94, 0x22, 0x3e, 0xe8, 0x75, 0xd5, 0xbd,
  0x07, 0x8a, 0x7a, 0xbe, 0x1b, 0x8e, 0x11, 0x3e, 0x67, 0x94, 0x01, 0xbe,
  0x62, 0x92, 0x74, 0xbd, 0xcb, 0x6d, 0xa3, 0xbe, 0x52, 0x4e, 0xd3, 0xbc,
  0x4b, 0x46, 0x4e, 0x3c, 0x00, 0xb5, 0x1a, 0x3e, 0xe1, 0x3a, 0xc9, 0xbc,
  0x77, 0xed, 0x13, 0x3d, 0x86, 0x1a, 0xa8, 0xbd, 0x19, 0x7e, 0x48, 0xbc,
  0xa5, 0x3f, 0x0b, 0x3d, 0xb4, 0x8c, 0x6d, 0xbe, 0x05, 0xb5, 0x5b, 0xbd,
  0x01, 0x6e, 0xa0, 0xbe, 0x19, 0x1e, 0x9f, 0xbe, 0x1f, 0xc3, 0xb6, 0x3c,
  0x87, 0xdb, 0xf2, 0xbe, 0xc5, 0x6a, 0x92, 0x3d, 0x39, 0x21, 0xdd, 0xbd,
  0xe5, 0xd6, 0x14, 0xbf, 0xb2, 0xac, 0xdb, 0xbd, 0x8a, 0x6c, 0xde, 0xbb,
  0x40, 0xe8, 0x7e, 0xbe, 0xe1, 0xd4, 0xac, 0xbd, 0x9c, 0x00, 0x2a, 0xbd,
  0xc3, 0x6f, 0x09, 0xbf, 0xbc, 0xf0, 0x8a, 0xbe, 0x75, 0xd0, 0xe0, 0xbb,
  0x2a, 0xf0, 0x03, 0xbf, 0xf5, 0x8a, 0xa0, 0xbe, 0x86, 0xa9, 0xdf, 0xbe,
  0x1f, 0x26, 0xff, 0xbe, 0x7d, 0x35, 0x1e, 0xbe, 0xb5, 0x80, 0x88, 0xbd,
  0x9b, 0xd1, 0xb3, 0xbd, 0x7a, 0x17, 0xa1, 0xbe, 0xf2, 0x0e, 0x95, 0x3f,
  0xd7, 0xb1, 0x2c, 0xbd, 0x81, 0x0a, 0x7f, 0xbe, 0xf1, 0x66, 0x40, 0x3e,
  0xa0, 0xee, 0x0c, 0xbe, 0x29, 0xdf, 0xac, 0xbe, 0x77, 0x36, 0xde, 0xbe,
  0x83, 0x48, 0xbd, 0x3f, 0xc3, 0xec, 0xbc, 0x3c, 0x6f, 0xcb, 0x89, 0xbc,
  0x8a, 0xfb, 0xbe, 0xbe, 0x08, 0x1c, 0x6d, 0xbe, 0xfa, 0x90, 0x83, 0xbe,
  0xed, 0x45, 0x30, 0xbe, 0xac, 0x3f, 0x9a, 0xbc, 0x6f, 0x69, 0x82, 0xbe,
  0x92, 0xfe, 0x74, 0x3f, 0xac, 0xe2, 0xa9, 0xbd, 0x97, 0x90, 0x53, 0xbe,
  0xee, 0x21, 0x48, 0x3e, 0x2a, 0xf4, 0xcd, 0x3c, 0xb9, 0x8f, 0xa4, 0xbe,
  0x27, 0x65, 0x90, 0xbe, 0x9c, 0xff, 0xf6, 0x3f, 0x96, 0xcd, 0x1d, 0xbe,
  0x37, 0x86, 0x44, 0xbc, 0x30, 0xb5, 0xa3, 0xbe, 0xb7, 0x15, 0xb2, 0xbe,
  0x2c, 0x0f, 0x6d, 0xbe, 0x72, 0x30, 0x13, 0x3e, 0x4c, 0xbc, 0xe6, 0xbb,
  0x1e, 0x33, 0x83, 0xbe, 0x7c, 0xdb, 0x3a, 0x3f, 0x36, 0x31, 0x7c, 0xbd,
  0xb2, 0x81, 0x60, 0xbe, 0xd9, 0xfe, 0xee, 0xbe, 0xfe, 0x8f, 0xd5, 0x3b,
  0x3e, 0x23, 0xad, 0xbd, 0x2a, 0x50, 0x5e, 0xbf, 0x7f, 0x54, 0xa5, 0x3f,
  0xe2, 0xeb, 0x83, 0xbe, 0xfd, 0x1f, 0x36, 0xbd, 0x3f, 0x7c, 0x6f, 0xbe,
  0x88, 0xb3, 0xf1, 0xbd, 0x9c, 0xea, 0x6c, 0xbe, 0x4a, 0x7c, 0xfa, 0x3d,
  0xd5, 0xe6, 0x68, 0x3e, 0x6b, 0x48, 0x52, 0x3d, 0xad, 0x08, 0xe5, 0x3e,
  0xad, 0x8c, 0x3f, 0xbc, 0x14, 0xd4, 0xba, 0x3c, 0x29, 0xc0, 0x05, 0x3e,
  0xd4, 0x97, 0x4b, 0xbd, 0xe4, 0x2d, 0x80, 0xbe, 0x52, 0xce, 0x1e, 0x3d,
  0x3c, 0x40, 0x8f, 0x3f, 0x96, 0x63, 0x5d, 0xbe, 0x59, 0x75, 0x68, 0x3e,
  0x5d, 0xa3, 0x11, 0xbe, 0x06, 0x10, 0x4c, 0xbe, 0x46, 0x2f, 0x92, 0x3d,
  0x62, 0x81, 0xc1, 0xbd, 0x75, 0x44, 0x3c, 0x3e, 0x3c, 0xdf, 0x8d, 0xbc,
  0xcb, 0xa5, 0xf3, 0x3e, 0x36, 0x2b, 0x32, 0xbe, 0x03, 0x3b, 0xfb, 0xbc,
  0x1d, 0x0d, 0x43, 0x3d, 0x58, 0xb2, 0x9a, 0x3d, 0x99, 0xfa, 0x8b, 0xbe,
  0x66, 0x20, 0x9a, 0x3d, 0x06, 0xd9, 0xc7, 0x3e, 0x3d, 0x2a, 0x02, 0x3d,
  0x78, 0xd8, 0x9b, 0x3d, 0x1e, 0x30, 0x26, 0x3e, 0xe9, 0x25, 0x24, 0xbe,
  0x67, 0x97, 0x87, 0xbe, 0x33, 0xe1, 0x2d, 0xbe, 0xdb, 0xc1, 0xef, 0x3d,
  0xa4, 0x53, 0xa3, 0x3d, 0x89, 0xc5, 0x4e, 0x3e, 0x0f, 0x49, 0x14, 0xbd,
  0xc1, 0x06, 0x18, 0x3c, 0x6d, 0x54, 0x80, 0x3d, 0xa1, 0x7c, 0x16, 0x3e,
  0x9f, 0x78, 0x7e, 0xbb, 0x8f, 0x01, 0x42, 0xbb, 0x75, 0x56, 0x84, 0x3e,
  0x98, 0x2a, 0x2f, 0x3d, 0x65, 0xc7, 0xa9, 0x3d, 0x68, 0xdf, 0xd3, 0xbd,
  0x6b, 0xa4, 0x7c, 0xbd, 0x55, 0xe7, 0xc0, 0x3d, 0x8e, 0x68, 0x48, 0x3d,
  0xb2, 0xd2, 0x27, 0x3e, 0x2e, 0x08, 0x2b, 0xbd, 0x82, 0x56, 0xe8, 0xbd,
  0xfb, 0x47, 0xb4, 0xbc, 0x94, 0x9d, 0x33, 0xbf, 0x48, 0xd7, 0x81, 0xbd,
  0xdf, 0x65, 0x0a, 0x3e, 0x32, 0xef, 0x88, 0xbd, 0x10, 0xc6, 0x66, 0xbe,
  0x4e, 0x3e, 0xc7, 0x3d, 0x4f, 0xa3, 0x3c, 0xbe, 0x40, 0x8f, 0xd5, 0xbe,
  0x25, 0x27, 0x8b, 0x3d, 0x75, 0xf0, 0xe9, 0x3d, 0x22, 0x49, 0x71, 0xbd,
  0xb5, 0x50, 0x8f, 0x3e, 0xc3, 0x39, 0x0b, 0x3f, 0x9d, 0x1d, 0xd0, 0xbe,
  0x16, 0xfd, 0x29, 0xbe, 0xfc, 0x6f, 0xf2, 0x3d, 0xbe, 0x42, 0x46, 0xbf,
  0x2e, 0x97, 0xd2, 0x3c, 0x5e, 0x8a, 0x54, 0x3e, 0x2e, 0x15, 0x96, 0xbe,
  0xc6, 0x75, 0xf7, 0xbd, 0xd0, 0x5f, 0x2b, 0xbe, 0xf1, 0x7d, 0xf3, 0x3d,
  0x42, 0x05, 0xf6, 0xbe, 0x7e, 0x14, 0x36, 0x3c, 0x30, 0xf9, 0x67, 0x3d,
  0xbf, 0xd4, 0x0a, 0x3d, 0x40, 0x08, 0xa5, 0xbd, 0x12, 0x41, 0x6e, 0x3c,
  0xd9, 0x3f, 0xf2, 0xbd, 0x7a, 0x54, 0xc1, 0xbd, 0x82, 0x69, 0xd5, 0x3d,
  0x5d, 0xc3, 0x18, 0xbf, 0xc7, 0xc0, 0x92, 0xbd, 0xe9, 0xce, 0x5d, 0x3e,
  0xb6, 0xf1, 0x2a, 0xbe, 0xa3, 0xaf, 0x0a, 0xbe, 0x39, 0xa7, 0xa6, 0xbe,
  0x45, 0x22, 0x14, 0x3e, 0x5c, 0x53, 0xa4, 0xbe, 0x0f, 0x4e, 0x14, 0x3d,
  0xb0, 0x84, 0x08, 0x3e, 0xfe, 0x0d, 0x39, 0xbe, 0x1e, 0x3b, 0x2c, 0xbc,
  0xe2, 0xce, 0x88, 0x3d, 0x4c, 0x7d, 0x50, 0x3d, 0xa7, 0x94, 0x48, 0x3d,
  0x07, 0x35, 0xcf, 0x3d, 0xa2, 0xc8, 0xf0, 0xbe, 0x3a, 0xf7, 0x40, 0x3b,
  0x4e, 0xb4, 0x03, 0x3e, 0xbd, 0x2b, 0x19, 0xbe, 0x4f, 0xfd, 0x12, 0xbd,
  0x5c, 0x17, 0x3d, 0xbe, 0x93, 0xb9, 0x83, 0xbd, 0x5d, 0xe7, 0x3e, 0x3e,
  0x77, 0x1f, 0x7d, 0xbd, 0x92, 0xe9, 0xbf, 0x3d, 0x94, 0x95, 0xea, 0xbd,
  0x52, 0xef, 0x3a, 0x3e, 0x03, 0xd8, 0x6b, 0x3e, 0xa7, 0x56, 0x6f, 0xbd,
  0x11, 0xd0, 0xf7, 0xbd, 0x61, 0x25, 0x9b, 0x3d, 0x1c, 0x2b, 0x18, 0xbf,
  0x86, 0xe2, 0x70, 0x3e, 0x6d, 0xa6, 0x6a, 0x3d, 0x8f, 0xc6, 0x1b, 0xbd,
  0x55, 0x0b, 0x63, 0x3c, 0x10, 0xc6, 0x8e, 0xbe, 0x31, 0x77, 0x83, 0x3d,
  0x64, 0x69, 0xa5, 0x3c, 0xc6, 0x5e, 0xe0, 0x3c, 0xbd, 0x49, 0x54, 0x3d,
  0x42, 0xd4, 0xfb, 0xbd, 0x88, 0x43, 0x26, 0xbd, 0x98, 0xf0, 0xa8, 0xbe,
  0x0b, 0x1f, 0x3d, 0xbf, 0xa8, 0x3b, 0x74, 0xbd, 0xc5, 0xf8, 0xbb, 0x3d,
  0x49, 0x59, 0x38, 0xbf, 0xbf, 0x07, 0x5f, 0xbd, 0xde, 0x65, 0x44, 0x3e,
  0xe6, 0x65, 0x34, 0xbe, 0x37, 0x40, 0x24, 0xbf, 0x22, 0x2d, 0x8a, 0xbe,
  0x09, 0xf8, 0x4f, 0xbe, 0x47, 0xb7, 0x00, 0xbf, 0xed, 0xd6, 0x17, 0x3d,
  0xf2, 0xd5, 0x18, 0x3e, 0xfa, 0x7f, 0x5e, 0xbd, 0x3a, 0xed, 0xae, 0x3e,
  0xba, 0xda, 0x70, 0xbe, 0x82, 0x05, 0x46, 0x3d, 0xed, 0x82, 0x9f, 0xbc,
  0xa1, 0x15, 0x44, 0x3d, 0x45, 0x0b, 0xec, 0xbd, 0x17, 0x08, 0xbd, 0xbe,
  0x3d, 0x3c, 0x69, 0x3e, 0x25, 0x79, 0x71, 0x3d, 0xbd, 0x26, 0xeb, 0xbd,
  0xc0, 0xaa, 0xe3, 0x3d, 0xe3, 0x5d, 0xaf, 0xbc, 0x3b, 0xe6, 0xce, 0xbe,
  0xcc, 0x84, 0x25, 0x3d, 0xa4, 0xf2, 0xd2, 0x3d, 0x4d, 0xeb, 0x6d, 0xbe,
  0x3a, 0xdf, 0xb6, 0xbd, 0xa4, 0x54, 0x0d, 0x3f, 0xa9, 0x07, 0xf2, 0xbb,
  0x60, 0x9a, 0x6f, 0x3e, 0x19, 0x3f, 0xe1, 0xbb, 0xc1, 0xf6, 0xb3, 0x3c,
  0xdb, 0x79, 0x47, 0x3e, 0x8a, 0xf8, 0xc4, 0x3b, 0x35, 0xbf, 0xad, 0xbc,
  0xf6, 0x99, 0xca, 0x3d, 0x8d, 0xc1, 0x1a, 0xbd, 0x68, 0x43, 0x87, 0x3d,
  0x85, 0xcb, 0xba, 0x3e, 0x9e, 0x1b, 0xae, 0xbe, 0x19, 0xba, 0x59, 0xbe,
  0x73, 0x7f, 0x00, 0x3d, 0xf2, 0x0b, 0xe9, 0x3d, 0xb9, 0x08, 0x22, 0x3d,
  0xa7, 0x21, 0xe4, 0x3c, 0x32, 0x82, 0x45, 0xbe, 0x10, 0x34, 0xa7, 0xbd,
  0x4b, 0x44, 0xd8, 0xbe, 0x09, 0x91, 0x82, 0xbe, 0x84, 0xa0, 0x5f, 0x3d,
  0x47, 0x01, 0x31, 0xbc, 0x41, 0x4d, 0x17, 0xbf, 0x61, 0x45, 0x1d, 0xbe,
  0x53, 0x45, 0xb7, 0x3d, 0xa7, 0xfe, 0x38, 0xbe, 0x64, 0x69, 0xbe, 0xbd,
  0x4f, 0xb7, 0x51, 0x3d, 0xbc, 0x18, 0x18, 0x3d, 0x1a, 0xc2, 0x0c, 0x3e,
  0x67, 0x7d, 0x6c, 0xbc, 0x36, 0xa4, 0x43, 0xbf, 0x15, 0x71, 0xb6, 0xbe,
  0xca, 0x44, 0x00, 0x3e, 0x0b, 0x06, 0x4c, 0xbe, 0xb7, 0x57, 0x1f, 0xbf,
  0x21, 0xb6, 0x84, 0xbc, 0x70, 0x63, 0xb5, 0x3c, 0x72, 0x66, 0x82, 0xbf,
  0xdc, 0xc1, 0xc4, 0x3d, 0x8c, 0x6e, 0x88, 0xbe, 0xd0, 0x3e, 0x4a, 0xbf,
  0x48, 0xe4, 0xd6, 0x3c, 0x57, 0x37, 0x8a, 0x3d, 0x87, 0x85, 0x2f, 0x3d,
  0x70, 0xbe, 0xcb, 0xbd, 0x19, 0x45, 0x31, 0x3e, 0x87, 0x28, 0x19, 0xbf,
  0x88, 0xf1, 0x80, 0xbe, 0x0c, 0x48, 0x1b, 0xbe, 0xdf, 0xde, 0x84, 0xbe,
  0x87, 0x47, 0x18, 0xbf, 0x68, 0x07, 0x98, 0x3d, 0x7f, 0xd5, 0x14, 0xbf,
  0x4a, 0xa4, 0x83, 0xbf, 0xa9, 0x3c, 0x39, 0xbb, 0xe1, 0x6c, 0x06, 0xbf,
  0x61, 0x86, 0x07, 0xbf, 0x01, 0x5a, 0xda, 0xbc, 0x12, 0x8d, 0xad, 0x3c,
  0x09, 0x61, 0x00, 0x3e, 0x99, 0x50, 0xa9, 0xbc, 0x56, 0x2b, 0x95, 0x3e,
  0x43, 0x17, 0x93, 0xbc, 0x1f, 0x72, 0x81, 0x3e, 0x12, 0x2c, 0xa8, 0x3c,
  0x6f, 0x8d, 0xdc, 0xbd, 0x3b, 0xd8, 0xb0, 0x3c, 0x94, 0xcb, 0x14, 0xbe,
  0x67, 0x7c, 0xd1, 0xbe, 0x41, 0xce, 0xc7, 0x3c, 0xaa, 0x8e, 0xb2, 0xbd,
  0xce, 0xd3, 0xfd, 0xbe, 0x95, 0x59, 0x9c, 0x3e, 0xf7, 0x24, 0x80, 0xbc,
  0xf7, 0xf7, 0x8c, 0xbd, 0x2e, 0x0b, 0xb1, 0x3d, 0x1d, 0xd0, 0x6e, 0xbc,
  0x45, 0x78, 0x39, 0x3e, 0xb6, 0x89, 0x8f, 0xbd, 0xaa, 0x2c, 0xe5, 0x3e,
  0x8e, 0xf6, 0x08, 0xbe, 0x86, 0x39, 0x25, 0xbc, 0xce, 0x66, 0x68, 0x3e,
  0xa4, 0xf0, 0xb2, 0x3d, 0xa1, 0x5b, 0xd3, 0xbe, 0x15, 0x95, 0x57, 0x3d,
  0x71, 0xd9, 0xea, 0x3e, 0x11, 0xf4, 0x0c, 0xbb, 0xde, 0x9a, 0x88, 0x3e,
  0xb4, 0x7a, 0xa7, 0x3d, 0x15, 0x4d, 0xca, 0xbd, 0x7a, 0xcb, 0xbd, 0xbc,
  0x70, 0x46, 0x92, 0x3c, 0xbc, 0x2d, 0x84, 0x3e, 0x4b, 0xcf, 0x6f, 0x3d,
  0x10, 0x52, 0xb2, 0x3d, 0x7d, 0x55, 0x9a, 0xbd, 0x75, 0x6e, 0xf5, 0xbc,
  0xfd, 0x75, 0x1a, 0x3e, 0xe5, 0x12, 0x69, 0x3e, 0xb0, 0x72, 0x91, 0xbd,
  0x4e, 0xd1, 0x83, 0x3d, 0x61, 0x6e, 0x8c, 0x3d, 0x4a, 0x1e, 0x02, 0xbd,
  0x7f, 0xa5, 0x38, 0x3d, 0xbc, 0x6c, 0x8c, 0x3c, 0xea, 0x4b, 0x8c, 0xbd,
  0xf5, 0xd2, 0x65, 0xbe, 0xbe, 0xc7, 0x66, 0xbb, 0xe6, 0x11, 0x14, 0x3e,
  0x87, 0x24, 0x2e, 0x3c, 0xff, 0x3f, 0x71, 0xbd, 0x52, 0xa3, 0x9c, 0xbe,
  0x0d, 0xfd, 0x67, 0xbe, 0xa1, 0xee, 0x35, 0xbe, 0x7a, 0xdf, 0x2a, 0xbe,
  0xe0, 0x92, 0x8b, 0xbd, 0x4e, 0x8b, 0xeb, 0xbd, 0x3a, 0x6a, 0x80, 0xbe,
  0xd2, 0x9c, 0x2f, 0x3e, 0xeb, 0x72, 0x23, 0xbe, 0xd3, 0xeb, 0xb0, 0xbe,
  0x86, 0x1e, 0x96, 0xbd, 0x88, 0x7e, 0x65, 0xbe, 0x66, 0xa7, 0x34, 0xbe,
  0x9d, 0x5d, 0x74, 0xbd, 0x6e, 0x3d, 0x0e, 0xbe, 0x91, 0xbf, 0xa6, 0x3d,
  0xac, 0xad, 0x08, 0xbe, 0xe8, 0x12, 0x03, 0xbe, 0x4e, 0x33, 0xd3, 0x3c,
  0xfd, 0x0d, 0xb1, 0x3c, 0x36, 0x45, 0x4e, 0x3d, 0x42, 0x35, 0x76, 0x3e,
  0xc8, 0x06, 0xae, 0xbb, 0x90, 0x9c, 0x9e, 0xbe, 0x2c, 0x39, 0xf3, 0xbd,
  0x91, 0xe2, 0xab, 0xbe, 0x8a, 0x9a, 0x8e, 0x3d, 0xf5, 0x8e, 0x2b, 0xbe,
  0xf2, 0x12, 0xfa, 0x3d, 0x53, 0x76, 0x85, 0x3b, 0x4f, 0x38, 0x46, 0xbd,
  0xa8, 0x86, 0x40, 0xbd, 0xf5, 0x18, 0x21, 0xbd, 0x2e, 0xed, 0x5d, 0xbd,
  0xa2, 0x48, 0x69, 0xbd, 0x26, 0xc4, 0xc3, 0x3d, 0x05, 0xe7, 0x15, 0x3d,
  0xf7, 0xd2, 0x0d, 0x3e, 0x28, 0x33, 0x34, 0x3d, 0x94, 0x6e, 0xcb, 0x3e,
  0x8c, 0xa5, 0x46, 0xbe, 0xdd, 0x78, 0xce, 0xbd, 0xfc, 0x45, 0x1f, 0xbe,
  0x0a, 0x65, 0x58, 0xbd, 0x8f, 0x86, 0x00, 0xbe, 0x20, 0x10, 0x32, 0x3d,
  0x78, 0x2d, 0xde, 0x3c, 0x35, 0x85, 0xf0, 0xbc, 0x0f, 0xc4, 0x10, 0xbd,
  0x51, 0xa3, 0x0b, 0x3e, 0xbf, 0x09, 0xfc, 0xbc, 0x05, 0x3a, 0xf9, 0xbd,
  0x36, 0xd6, 0x0f, 0x3e, 0xb6, 0x06, 0x63, 0x3e, 0xdc, 0xa3, 0x06, 0x3e,
  0x6a, 0x1a, 0xc5, 0xbc, 0x29, 0x4d, 0xe2, 0xbd, 0x36, 0x73, 0x7e, 0xbe,
  0x9f, 0x1b, 0xb0, 0xbd, 0x2c, 0xa3, 0x7f, 0xbe, 0x74, 0x65, 0xd0, 0xbd,
  0xbe, 0x16, 0xb0, 0x3d, 0x6a, 0x62, 0x7f, 0xbe, 0x4c, 0xcc, 0xba, 0x3c,
  0x87, 0x90, 0x27, 0xbd, 0x77, 0xc6, 0x87, 0xbd, 0xf0, 0x20, 0x68, 0xbe,
  0x7a, 0xdc, 0x1a, 0xbe, 0x5a, 0xcd, 0x2b, 0x3e, 0x90, 0x03, 0xbe, 0x3d,
  0xde, 0xc7, 0xed, 0x3c, 0x55, 0x17, 0xd9, 0x3d, 0xdc, 0x36, 0x07, 0x3d,
  0xe3, 0xe0, 0xe6, 0xbc, 0x21, 0x2b, 0x86, 0xbb, 0x83, 0xed, 0xf1, 0x3d,
  0x3d, 0xd5, 0xee, 0xbd, 0x6d, 0xd8, 0x45, 0x3d, 0x06, 0xce, 0xf4, 0xbd,
  0xf3, 0x94, 0xe8, 0x3c, 0xf9, 0x62, 0x61, 0xbe, 0x24, 0x80, 0x11, 0xbd,
  0x95, 0xb6, 0x8f, 0xbe, 0xb8, 0xce, 0x8e, 0xbd, 0xfe, 0xce, 0x47, 0xbc,
  0x97, 0xdc, 0x24, 0x3d, 0xb5, 0x59, 0x0f, 0xbe, 0x4e, 0x96, 0x8e, 0xbe,
  0xd3, 0x4c, 0x9b, 0xbd, 0x9f, 0xea, 0x9b, 0xbd, 0x7a, 0x1c, 0x55, 0xbd,
  0x8a, 0xb7, 0x2f, 0xbe, 0x5b, 0xe7, 0x3b, 0xbc, 0x19, 0x7d, 0x44, 0xbd,
  0xc4, 0x61, 0x83, 0x3d, 0xd9, 0xcb, 0x7d, 0x3d, 0x79, 0xaf, 0x7f, 0x3d,
  0x1e, 0xd1, 0x9f, 0x3b, 0x2f, 0x2c, 0x16, 0xbe, 0xc3, 0xf6, 0xae, 0xbd,
  0xb4, 0x36, 0xa2, 0xbd, 0xa1, 0xaf, 0x4a, 0x3d, 0xa8, 0xd0, 0x13, 0xbe,
  0xd4, 0x79, 0x48, 0xbe, 0xbb, 0x00, 0x0e, 0xbe, 0x01, 0xe1, 0x92, 0xbe,
  0xbe, 0x71, 0xc2, 0xbe, 0x40, 0x1e, 0x58, 0xbf, 0x93, 0xfd, 0x23, 0x3e,
  0x36, 0xdf, 0x04, 0xbf, 0x21, 0x69, 0x43, 0x3c, 0x84, 0x60, 0x9d, 0xbe,
  0x13, 0x15, 0x81, 0x3c, 0xba, 0xa3, 0x05, 0xbf, 0x19, 0xb5, 0x70, 0xbe,
  0xe6, 0xa5, 0x88, 0xbe, 0x62, 0x39, 0xfa, 0x3d, 0xbe, 0x62, 0xeb, 0x3b,
  0xf2, 0xf9, 0x0d, 0xbe, 0x4a, 0xfe, 0x00, 0x3e, 0x12, 0xb6, 0xa7, 0xbe,
  0x3e, 0xc5, 0xa1, 0xbe, 0xcc, 0x7c, 0x5f, 0x3c, 0xec, 0x55, 0x3f, 0xbf,
  0xe0, 0xc8, 0x44, 0x3e, 0x44, 0xbd, 0x37, 0x3e, 0x91, 0x11, 0x62, 0xbb,
  0xa0, 0x64, 0xcf, 0x3e, 0x3e, 0xfb, 0xb1, 0xbd, 0x2b, 0xa7, 0x77, 0xbe,
  0x32, 0x61, 0xc3, 0xbe, 0x6e, 0x0f, 0xe2, 0x3d, 0x8a, 0xbb, 0x6e, 0x3e,
  0x76, 0x6f, 0xba, 0xbc, 0x49, 0x2e, 0x95, 0xbe, 0xa6, 0x83, 0xc6, 0xbd,
  0xaa, 0x4b, 0x8f, 0xbe, 0x13, 0x7d, 0xa4, 0xbe, 0x11, 0xb7, 0xbd, 0x3c,
  0x37, 0xbd, 0x9d, 0xbe, 0x31, 0x47, 0x0a, 0x3e, 0x36, 0xad, 0x02, 0x3e,
  0xd5, 0xd4, 0x30, 0x3d, 0xdb, 0x59, 0x0f, 0x3f, 0x18, 0x0a, 0xfc, 0xbc,
  0xc5, 0xd2, 0x8e, 0xbe, 0x3f, 0x0c, 0x6b, 0xbe, 0x8b, 0x9c, 0xdc, 0x3d,
  0x72, 0x83, 0x6f, 0x3e, 0x85, 0xc7, 0x60, 0x3e, 0x5a, 0xb1, 0x67, 0xbe,
  0x87, 0x20, 0xd7, 0xbb, 0x87, 0x82, 0xe6, 0xbd, 0xd3, 0xb9, 0x5e, 0xbe,
  0x41, 0x4d, 0xdf, 0xbd, 0xe6, 0xe7, 0xb1, 0xbe, 0xa8, 0x01, 0x81, 0xbe,
  0x5b, 0xbb, 0x0b, 0x3d, 0x25, 0xc4, 0x40, 0x3d, 0x86, 0xeb, 0x9e, 0x3e,
  0x46, 0x9a, 0x0d, 0xbd, 0x15, 0x82, 0x94, 0xbe, 0xe6, 0x6e, 0xa8, 0xbe,
  0xee, 0x38, 0x76, 0x3d, 0xc5, 0x7c, 0x29, 0x3e, 0x53, 0xa1, 0x8d, 0x3e,
  0xf1, 0x2f, 0xdd, 0xbd, 0xdd, 0x43, 0x65, 0x3e, 0xa8, 0x48, 0x92, 0xbb,
  0x57, 0xc7, 0x0c, 0xbe, 0xe9, 0x4a, 0xb2, 0xbd, 0x83, 0x8b, 0xad, 0xbe,
  0xdb, 0x7d, 0xb1, 0xbc, 0x64, 0xb6, 0xbb, 0xbe, 0xad, 0xd8, 0x37, 0xbd,
  0xe0, 0xb5, 0xa5, 0xbe, 0x79, 0xc5, 0x22, 0xbd, 0x66, 0x76, 0xb9, 0xbe,
  0x22, 0x0e, 0xc1, 0xbe, 0x0d, 0x09, 0x0c, 0xbe, 0x60, 0x0c, 0x50, 0x3e,
  0x1d, 0x73, 0xf6, 0x3d, 0x69, 0xb3, 0xcb, 0xbe, 0xd0, 0x50, 0x40, 0x3e,
  0x6d, 0xdf, 0xca, 0xbd, 0xd0, 0x7d, 0xbe, 0xbc, 0xf1, 0xf1, 0xf0, 0xba,
  0x3a, 0x74, 0x70, 0xbe, 0xc6, 0x6f, 0xc9, 0xbc, 0x61, 0xa6, 0x26, 0xbf,
  0x79, 0x58, 0x30, 0x3d, 0x8d, 0x66, 0xcb, 0xbd, 0x39, 0x45, 0x62, 0xbd,
  0xa4, 0x33, 0xc4, 0xbe, 0xdf, 0x9c, 0xdf, 0xbe, 0x95, 0x04, 0xe7, 0xbd,
  0xe3, 0x7c, 0x67, 0x3e, 0x30, 0xeb, 0x63, 0x3d, 0xe8, 0x7d, 0x80, 0xbe,
  0x6e, 0xfe, 0xc4, 0x3d, 0xdd, 0xa6, 0x91, 0xbe, 0x80, 0x49, 0x4e, 0xbe,
  0xfb, 0x9a, 0x0d, 0xbd, 0x93, 0xef, 0x1d, 0x3e, 0xd3, 0x79, 0x1a, 0x3e,
  0x9b, 0xb0, 0xc7, 0xbe, 0x6b, 0x66, 0x71, 0x3d, 0x7c, 0xda, 0xb7, 0xbd,
  0xa5, 0x29, 0xb6, 0x3d, 0x03, 0xb5, 0xb2, 0xbe, 0x43, 0x70, 0x17, 0xbe,
  0x8d, 0xe3, 0x94, 0xbe, 0x25, 0x6c, 0x2a, 0x3c, 0x26, 0x1a, 0x03, 0x3e,
  0x5b, 0x2a, 0x94, 0xbe, 0x09, 0xb2, 0xaa, 0x3d, 0xd2, 0x16, 0x95, 0xbe,
  0xb9, 0x4e, 0x18, 0x3e, 0xb0, 0xcb, 0x87, 0xbc, 0x6f, 0xc5, 0x9d, 0x3d,
  0x1b, 0xbf, 0x63, 0x3e, 0xaa, 0x37, 0xd4, 0x3d, 0xa8, 0xd5, 0x5e, 0x3b,
  0x74, 0xb8, 0x18, 0x3e, 0x6c, 0x47, 0x62, 0xbd, 0x4f, 0x1c, 0x09, 0x3e,
  0xd2, 0x06, 0xa7, 0x3d, 0x7a, 0x2e, 0xf1, 0xbc, 0x3e, 0xd8, 0x73, 0xbd,
  0x04, 0x31, 0x38, 0x3d, 0x3b, 0xb1, 0xbf, 0x3b, 0xbd, 0x49, 0xba, 0xbc,
  0x5c, 0xb8, 0x5f, 0x3e, 0x41, 0x3c, 0xb8, 0x3c, 0x63, 0xda, 0x3a, 0x3d,
  0x10, 0xc1, 0x28, 0x3e, 0xe5, 0x2b, 0xc8, 0x3b, 0x7a, 0x20, 0x0a, 0x3d,
  0x73, 0x7d, 0xcd, 0x3c, 0xe1, 0x27, 0x8b, 0xbe, 0xad, 0xff, 0x13, 0xbd,
  0x8f, 0x23, 0xd7, 0x3d, 0x51, 0x59, 0x5f, 0xbe, 0xdb, 0xeb, 0x16, 0xbd,
  0x56, 0x98, 0x05, 0xbe, 0x9c, 0x13, 0x8c, 0x3d, 0xcb, 0xe0, 0x87, 0x3e,
  0xb8, 0x3c, 0xaa, 0xbc, 0xc8, 0xd0, 0x9f, 0x3e, 0x40, 0xc3, 0xc5, 0x3d,
  0x90, 0x5f, 0x84, 0x3c, 0x01, 0xc4, 0x18, 0x3e, 0x10, 0x51, 0xde, 0xbd,
  0x93, 0x29, 0x36, 0xbe, 0xcd, 0x24, 0x0f, 0x3e, 0x77, 0xeb, 0xeb, 0xbe,
  0xaf, 0x57, 0xb8, 0xbd, 0xe4, 0x1c, 0x05, 0xbe, 0xe5, 0xb4, 0xf5, 0xbe,
  0x38, 0xd5, 0x8f, 0x3d, 0x08, 0xc3, 0xdf, 0xbe, 0x7f, 0xaf, 0x8c, 0xbd,
  0xc2, 0xed, 0x74, 0x3d, 0x90, 0xe7, 0x41, 0xbe, 0xf5, 0x0c, 0x6e, 0x3e,
  0x8b, 0x7e, 0x8c, 0x3c, 0x80, 0x38, 0xc0, 0x3d, 0x29, 0x4e, 0x22, 0x3e,
  0x3c, 0x8a, 0x4f, 0xbd, 0xa0, 0x5f, 0x6d, 0x3e, 0x9d, 0x71, 0x8e, 0x3d,
  0xd9, 0xab, 0x91, 0xbe, 0x22, 0x51, 0xb7, 0xbd, 0x84, 0xfc, 0x47, 0xbe,
  0x28, 0xea, 0x2c, 0xbf, 0x30, 0x66, 0x84, 0x3d, 0xd8, 0x25, 0xf6, 0xbe,
  0xca, 0xd6, 0x03, 0xbe, 0x41, 0x3a, 0x8a, 0x3e, 0xab, 0x47, 0x26, 0xbf,
  0x59, 0x0d, 0x54, 0x3e, 0x53, 0x52, 0x08, 0x3d, 0xf5, 0x68, 0xcf, 0x3d,
  0x0e, 0x8a, 0xb7, 0xbb, 0x71, 0xbf, 0x4d, 0x3e, 0xed, 0xd2, 0x72, 0xbe,
  0x98, 0xaa, 0x73, 0xbc, 0xf8, 0xca, 0xb4, 0x3e, 0x12, 0x4a, 0x3b, 0x3c,
  0xb0, 0x7e, 0x9d, 0x3d, 0x5e, 0x7d, 0xab, 0xbd, 0xb2, 0x75, 0x0c, 0xbd,
  0x07, 0x0c, 0x0c, 0xbe, 0x73, 0xe4, 0x92, 0x3d, 0x84, 0x4b, 0x89, 0x3e,
  0x2a, 0xe2, 0xd0, 0xbe, 0xd1, 0x5f, 0x99, 0x3e, 0x40, 0x8a, 0x9e, 0xbc,
  0xdd, 0xf4, 0x56, 0x3d, 0x62, 0x4c, 0xb4, 0xbe, 0xe0, 0xcb, 0x3d, 0xbe,
  0xc5, 0xec, 0x12, 0x3e, 0xe3, 0x0d, 0x2d, 0x3d, 0xe3, 0xb1, 0x57, 0x3c,
  0xb7, 0xed, 0xcb, 0xbd, 0x15, 0x8c, 0x39, 0x3e, 0xa6, 0x85, 0x7c, 0xbe,
  0x2c, 0xee, 0xcd, 0x3d, 0x59, 0x22, 0x57, 0xbe, 0x7c, 0xb6, 0x89, 0x3c,
  0x5d, 0xc1, 0x7a, 0x3e, 0x59, 0xa4, 0x1e, 0xbe, 0x4c, 0xd6, 0x6e, 0x3e,
  0xfa, 0xe4, 0xec, 0xbd, 0x00, 0x7f, 0x18, 0x3c, 0x22, 0xa4, 0x3e, 0xbf,
  0x7a, 0xb2, 0x28, 0x3d, 0x31, 0x40, 0xaf, 0x3e, 0xf8, 0x3b, 0x51, 0x3a,
  0x79, 0xd5, 0x1a, 0x3e, 0x81, 0x69, 0x91, 0xbe, 0x20, 0xdf, 0x1f, 0xbb,
  0xdd, 0x2c, 0x9a, 0x3d, 0xe6, 0x44, 0xc7, 0x3d, 0xd9, 0xbf, 0x0d, 0xbd,
  0x95, 0x57, 0x1a, 0x3d, 0xc8, 0x35, 0xf1, 0xbe, 0xbf, 0x73, 0xbb, 0xbc,
  0x71, 0x94, 0xf2, 0x3d, 0x31, 0x3e, 0xa8, 0xbe, 0xe5, 0xa5, 0x18, 0xbe,
  0x05, 0xe6, 0x76, 0x3d, 0xa4, 0xc5, 0xd3, 0x3d, 0xae, 0xa0, 0xea, 0x3d,
  0x87, 0xc8, 0x16, 0xbf, 0x29, 0x58, 0x78, 0x3e, 0xed, 0x4f, 0x96, 0x3d,
  0x7f, 0xd0, 0xa1, 0xbd, 0xb1, 0x3b, 0xc7, 0xbe, 0x3e, 0xf5, 0x41, 0x3e,
  0x3b, 0x29, 0x0a, 0xbd, 0xe2, 0x5b, 0x3b, 0x3c, 0x6d, 0xbb, 0x81, 0x3e,
  0xad, 0x87, 0xaf, 0xbe, 0x7f, 0xf1, 0x03, 0xbf, 0x75, 0x35, 0x98, 0x3d,
  0x5a, 0x7c, 0xf1, 0x3d, 0x9a, 0xe0, 0xb1, 0xbd, 0x76, 0x20, 0x58, 0x3e,
  0x09, 0xab, 0x98, 0xbd, 0xc9, 0xba, 0x94, 0x3b, 0xd2, 0x68, 0xad, 0xbd,
  0x27, 0xd4, 0x35, 0xbd, 0x0f, 0x4e, 0xb1, 0x3d, 0x60, 0xa4, 0x59, 0xbf,
  0x1d, 0x97, 0xca, 0x3e, 0x45, 0x7c, 0x97, 0xbe, 0x97, 0x8c, 0x95, 0xbe,
  0x6d, 0x4b, 0x32, 0xbe, 0xbf, 0xaa, 0xa0, 0x3d, 0x5e, 0xe9, 0x2b, 0xbf,
  0x22, 0x8d, 0xfd, 0x39, 0x61, 0x1f, 0xde, 0x3d, 0x48, 0x37, 0x54, 0x3c,
  0x03, 0x71, 0xef, 0xbc, 0xb2, 0x47, 0x80, 0xbe, 0x51, 0xf5, 0x7e, 0x3c,
  0xfd, 0x93, 0xb8, 0xbc, 0x5f, 0x39, 0xbe, 0xbd, 0xbf, 0x2d, 0x5d, 0x3e,
  0x85, 0x53, 0x8d, 0xbf, 0x20, 0x68, 0x68, 0x3e, 0x78, 0x6f, 0x1a, 0x3d,
  0x41, 0x1a, 0xf6, 0xbd, 0x42, 0x25, 0x90, 0xbe, 0xd4, 0x39, 0x01, 0xbe,
  0xd7, 0xcb, 0xfc, 0xbd, 0x19, 0xde, 0xb9, 0xbc, 0x2d, 0xbb, 0x9b, 0x3d,
  0xfe, 0x8a, 0x5a, 0xbc, 0xce, 0x4d, 0xaf, 0x3d, 0x93, 0xd8, 0x9e, 0x3e,
  0x87, 0x71, 0x84, 0x3c, 0xa1, 0xd2, 0xdb, 0xbc, 0x2c, 0x36, 0x0a, 0x3e,
  0x6f, 0xf4, 0x5e, 0x3e, 0xa8, 0x82, 0x61, 0xbf, 0x1e, 0x51, 0x6c, 0x3e,
  0xc4, 0xf0, 0x3a, 0xbe, 0xd0, 0x68, 0x1d, 0xbe, 0x7f, 0x67, 0x63, 0xbe,
  0x2e, 0x41, 0xc7, 0x3c, 0x36, 0xa2, 0x00, 0x3e, 0x91, 0x8e, 0x2c, 0xbd,
  0x32, 0x40, 0x40, 0x3d, 0x2c, 0xa6, 0x6d, 0xbd, 0x4a, 0xfb, 0x23, 0x3e,
  0x8e, 0x74, 0xb1, 0x3e, 0xc0, 0x9e, 0x07, 0xbe, 0x5d, 0xf7, 0xf2, 0x3e,
  0xf2, 0x96, 0xab, 0xbd, 0x60, 0xdf, 0x05, 0x3e, 0x3d, 0xc9, 0xeb, 0xbe,
  0xd3, 0xfa, 0x59, 0x3d, 0xc3, 0x92, 0x06, 0xbe, 0xae, 0x33, 0x9a, 0xbe,
  0xdb, 0xc9, 0x84, 0xbe, 0x56, 0xfd, 0xbb, 0xbc, 0xc1, 0x94, 0x01, 0x3c,
  0x8b, 0xad, 0x31, 0xbd, 0x2c, 0xa6, 0x7c, 0x3c, 0x59, 0x23, 0xb4, 0x3c,
  0x58, 0x64, 0x63, 0x3d, 0x6b, 0xf0, 0xe7, 0xbe, 0x67, 0xa8, 0x10, 0xbf,
  0xd4, 0x96, 0xe7, 0x3d, 0x6d, 0x58, 0xd3, 0x3b, 0x68, 0x9e, 0xc3, 0xbd,
  0xc6, 0x5e, 0x4c, 0xbf, 0x72, 0xce, 0xaa, 0x3e, 0xeb, 0x0d, 0xb0, 0xbe,
  0x7c, 0x2a, 0x42, 0xbf, 0x0e, 0x8d, 0x3f, 0xbe, 0x7a, 0x57, 0x95, 0x3d,
  0xd3, 0xbe, 0xf8, 0xbd, 0xe9, 0x3c, 0x0c, 0xbd, 0xa3, 0xcc, 0x8d, 0x3b,
  0x75, 0x11, 0xd9, 0x3d, 0xf8, 0x3c, 0x00, 0x3e, 0x6b, 0x23, 0x6a, 0x3d,
  0x00, 0x33, 0xdf, 0xbd, 0xc9, 0x27, 0x25, 0x3e, 0x4c, 0x67, 0xde, 0x3d,
  0x9e, 0x1f, 0x22, 0x3d, 0xa6, 0x7a, 0x86, 0xbe, 0xcf, 0x4b, 0x92, 0x3d,
  0x9d, 0xdc, 0x63, 0xbe, 0x7c, 0x9b, 0xe3, 0x3c, 0xfa, 0x83, 0xa3, 0x3c,
  0xda, 0xd8, 0xae, 0x3d, 0x3e, 0x86, 0xa4, 0x3d, 0x12, 0x92, 0xaa, 0x3d,
  0x7e, 0x8b, 0x53, 0x3d, 0x3b, 0xb8, 0xc9, 0xbe, 0xb4, 0x8d, 0x20, 0x3d,
  0x1f, 0x70, 0x23, 0x3e, 0x62, 0xe8, 0x48, 0x3c, 0x6e, 0xd2, 0xdd, 0x3d,
  0x4d, 0x66, 0x18, 0xbc, 0x61, 0xb9, 0xc7, 0xbc, 0x9b, 0x67, 0xad, 0x3c,
  0x1b, 0x46, 0xd2, 0xbc, 0x62, 0xb0, 0xbf, 0x3d, 0x61, 0x67, 0x9f, 0x3d,
  0x61, 0xaa, 0x83, 0x39, 0x84, 0x43, 0x34, 0x3e, 0x97, 0xce, 0x63, 0x3d,
  0x26, 0xc9, 0x4b, 0xbe, 0xa1, 0xf7, 0x0e, 0xbe, 0x19, 0x01, 0x89, 0xbe,
  0x53, 0xa3, 0x2d, 0x3d, 0xce, 0xc7, 0xbb, 0xbd, 0xa8, 0x3f, 0x63, 0xbd,
  0x5e, 0x36, 0x2b, 0x3e, 0xc9, 0xa6, 0x0e, 0xbd, 0xef, 0xf8, 0xaa, 0xbe,
  0x60, 0x7e, 0x4f, 0xbe, 0x6a, 0x28, 0x7b, 0xbe, 0x34, 0xec, 0x57, 0x3e,
  0xfc, 0xea, 0x5f, 0x3c, 0x24, 0x58, 0x72, 0xbe, 0x70, 0x7b, 0x7b, 0x3d,
  0x85, 0x1f, 0x8e, 0xbd, 0x25, 0xa3, 0x99, 0xbd, 0x56, 0xbd, 0xd6, 0x3c,
  0x79, 0xa6, 0x00, 0xbe, 0x56, 0x35, 0x8f, 0x3d, 0xf9, 0xac, 0x2b, 0x3e,
  0x66, 0x6a, 0x4c, 0x3d, 0x6d, 0x37, 0x18, 0x3e, 0xb1, 0xd7, 0x84, 0x3b,
  0xcf, 0x6a, 0x5c, 0xbe, 0xc7, 0x14, 0xfa, 0xbe, 0xad, 0x5c, 0xcb, 0xbd,
  0xf1, 0xe7, 0x09, 0x3e, 0xb8, 0x96, 0xb1, 0x3d, 0xf4, 0x7f, 0x24, 0x3e,
  0xed, 0x9e, 0xa1, 0xbd, 0x62, 0x1c, 0x12, 0xbe, 0x88, 0x1e, 0x0e, 0xbe,
  0x54, 0xad, 0x8c, 0xbc, 0x77, 0xeb, 0x22, 0xbd, 0xe9, 0xce, 0x82, 0xbe,
  0xe9, 0xad, 0x30, 0xbd, 0x3c, 0xe9, 0xa8, 0xbd, 0x8e, 0x44, 0x29, 0x3e,
  0x03, 0x98, 0x0a, 0xbd, 0xbe, 0xf4, 0x90, 0xbe, 0x44, 0x41, 0x29, 0xbf,
  0x50, 0xd6, 0x0c, 0xbe, 0xf3, 0xd2, 0x52, 0x3d, 0xef, 0x28, 0xd1, 0x3d,
  0x79, 0xef, 0xa3, 0x3d, 0xd1, 0xa7, 0xdf, 0x3d, 0x56, 0xd8, 0x8f, 0xbd,
  0xfa, 0x64, 0x50, 0xbd, 0x6c, 0xf1, 0x00, 0xbe, 0x15, 0xdc, 0x52, 0x3d,
  0x60, 0xd1, 0xe7, 0x3d, 0x5e, 0x90, 0x86, 0x3d, 0xed, 0x08, 0x8c, 0x3c,
  0xe6, 0xcf, 0xa6, 0xbd, 0x43, 0xc1, 0x93, 0x3d, 0x6a, 0x76, 0x45, 0xbe,
  0x4b, 0x4c, 0xf8, 0xbe, 0x80, 0x3c, 0xc2, 0xbd, 0x59, 0xdc, 0xea, 0x3d,
  0xd6, 0x2e, 0x23, 0x3e, 0x81, 0xd1, 0x47, 0x3d, 0x03, 0x0f, 0x63, 0x3d,
  0xf9, 0xb0, 0x93, 0x3d, 0x41, 0x16, 0x1b, 0xbd, 0xa8, 0x93, 0x4b, 0xba,
  0x11, 0x6a, 0xcd, 0x3d, 0x4a, 0x28, 0x58, 0x3c, 0x5d, 0x11, 0x2c, 0xbd,
  0xd8, 0x66, 0xa0, 0x3d, 0x05, 0x7b, 0x10, 0x3e, 0x44, 0x87, 0x02, 0xbc,
  0xbd, 0x55, 0xf2, 0xbd, 0x8b, 0x3b, 0x80, 0xbe, 0x7f, 0x41, 0x51, 0xbe,
  0x3d, 0x07, 0x9a, 0x3d, 0x42, 0xa2, 0xa1, 0x3d, 0x3f, 0xc5, 0xa9, 0xbe,
  0x00, 0xce, 0xe7, 0x3d, 0x2c, 0x32, 0xdb, 0x3c, 0x8d, 0x13, 0x7e, 0xba,
  0x5c, 0xf5, 0x4c, 0x39, 0x25, 0xbc, 0x1d, 0x3e, 0x22, 0xc5, 0x99, 0x3d,
  0xaf, 0x2c, 0x89, 0x3d, 0x2e, 0xe0, 0x40, 0x3d, 0x4f, 0x55, 0x22, 0xbc,
  0xa2, 0xec, 0xd0, 0x3c, 0xde, 0x26, 0xca, 0xbd, 0xc1, 0xd4, 0xd9, 0x3d,
  0xf0, 0xdd, 0xa8, 0xbc, 0x89, 0x1e, 0x11, 0xbd, 0xfd, 0xbf, 0x8b, 0x3d,
  0x28, 0xdb, 0x09, 0x3d, 0x83, 0x30, 0x14, 0x3d, 0xcd, 0xf9, 0x94, 0xbd,
  0x3d, 0x96, 0x41, 0xbd, 0xc0, 0x4d, 0xaf, 0x3b, 0xf9, 0x2c, 0x57, 0xbe,
  0x55, 0xc8, 0xd0, 0xbc, 0x5c, 0x63, 0xe2, 0x3e, 0xae, 0xc5, 0xe3, 0xbc,
  0xc1, 0x4f, 0x57, 0x3e, 0x50, 0xe1, 0x10, 0x3e, 0xb4, 0x5f, 0x2a, 0xbc,
  0x56, 0xea, 0x14, 0x3e, 0x16, 0x6b, 0x1d, 0x3e, 0xad, 0x3f, 0xe6, 0xbd,
  0x7a, 0x3d, 0x24, 0x3d, 0x46, 0x88, 0x66, 0x3e, 0xc2, 0xe1, 0x8b, 0x3d,
  0xc0, 0xcd, 0x67, 0x3d, 0x97, 0x45, 0x2c, 0xbe, 0x93, 0xbb, 0x4c, 0xbe,
  0x84, 0xd3, 0x98, 0xbd, 0x3b, 0x40, 0xcb, 0xbd, 0x32, 0xa6, 0x08, 0x3e,
  0xc3, 0xc4, 0x46, 0x3d, 0xf7, 0xf3, 0x3d, 0x3c, 0x6f, 0x35, 0xe3, 0xbc,
  0x6b, 0xb4, 0x48, 0xbc, 0x52, 0x7f, 0xf4, 0x3c, 0xa3, 0x0b, 0x0c, 0x3e,
  0x27, 0x7e, 0x20, 0x3d, 0xfb, 0x01, 0x8c, 0xbd, 0xac, 0x36, 0x5c, 0xbd,
  0xe8, 0x84, 0x6a, 0x3e, 0x84, 0x81, 0xaa, 0xbd, 0x62, 0x7e, 0xa2, 0xbc,
  0x97, 0xf6, 0xa4, 0xbd, 0xa5, 0xdb, 0x36, 0xbe, 0x5a, 0x92, 0x66, 0xbb,
  0x92, 0x40, 0x6a, 0x3e, 0xd1, 0x11, 0x9b, 0xbc, 0x69, 0x25, 0x37, 0xbf,
  0xcd, 0xa8, 0xf1, 0x3c, 0x02, 0xe2, 0xd2, 0x3d, 0x42, 0xcb, 0x8b, 0x3c,
  0x99, 0x4d, 0x15, 0x3e, 0xeb, 0x8b, 0x73, 0x3d, 0x1a, 0xca, 0x68, 0xbe,
  0xdd, 0x33, 0x87, 0xbe, 0x48, 0x79, 0x9f, 0x3c, 0x53, 0xe3, 0xf2, 0xbd,
  0xee, 0x4d, 0xb4, 0xbd, 0xe1, 0x9c, 0xa5, 0xbc, 0x8b, 0x7d, 0x21, 0xbe,
  0x56, 0x51, 0x0d, 0x3e, 0x50, 0x55, 0x5d, 0x3e, 0x5d, 0x9b, 0x03, 0x3d,
  0x2c, 0xb9, 0xdc, 0xbe, 0x06, 0x8b, 0x99, 0x3d, 0x7b, 0x77, 0x96, 0x3d,
  0x02, 0xa5, 0xee, 0xbd, 0x76, 0x6d, 0x15, 0x3c, 0xe9, 0x19, 0xa2, 0x3c,
  0xe6, 0xf6, 0x54, 0xbe, 0xd6, 0x16, 0xb6, 0xbe, 0x8e, 0x8c, 0xc1, 0xbd,
  0xb5, 0x97, 0x78, 0x3c, 0x84, 0xe8, 0x04, 0xbe, 0xa7, 0xd3, 0xfc, 0xbc,
  0xbf, 0x5f, 0xe9, 0xbd, 0xdb, 0x8a, 0x5b, 0xbb, 0x46, 0x77, 0x8a, 0x3e,
  0x83, 0x15, 0x1c, 0x3b, 0x96, 0x97, 0x87, 0x3e, 0xc7, 0x33, 0x9a, 0xbc,
  0xa5, 0x9b, 0x4f, 0x3d, 0x1a, 0x11, 0x19, 0x3e, 0xbe, 0x1e, 0xd9, 0x3c,
  0xb1, 0xc8, 0xe6, 0xbc, 0x9d, 0xc3, 0x39, 0xbd, 0xf2, 0x5a, 0x14, 0xbe,
  0xb5, 0xe7, 0x99, 0xbd, 0xeb, 0x3d, 0xa9, 0x3b, 0x14, 0xf5, 0x87, 0xbd,
  0xb1, 0xe6, 0x21, 0x3c, 0x5e, 0x93, 0xcc, 0xbc, 0x4e, 0xcd, 0x0b, 0xbe,
  0x93, 0x33, 0xac, 0x3e, 0x27, 0x66, 0xdf, 0xbd, 0x93, 0xf7, 0x32, 0x3a,
  0x21, 0xe5, 0x81, 0xbd, 0xc0, 0x3b, 0xeb, 0x37, 0xb1, 0x74, 0xa2, 0x3e,
  0xe9, 0x43, 0xcc, 0x3d, 0xcf, 0xb2, 0x31, 0xbd, 0x70, 0xef, 0x62, 0xbe,
  0x9f, 0xdb, 0xe5, 0xbd, 0x70, 0x4c, 0xf3, 0xbc, 0x4e, 0xb3, 0x79, 0xbd,
  0x2e, 0xa4, 0x4b, 0xbd, 0x85, 0xf0, 0x8d, 0x3d, 0x1a, 0xb6, 0x27, 0x3e,
  0x50, 0x1a, 0x2e, 0xbd, 0xf4, 0x60, 0x18, 0x3e, 0xc8, 0x5e, 0xb7, 0x3c,
  0xd9, 0x04, 0xab, 0x3d, 0x12, 0xbd, 0x49, 0x3e, 0xa5, 0xc7, 0x19, 0x3c,
  0x41, 0x61, 0xda, 0xbc, 0x7d, 0x72, 0xc3, 0xbc, 0x0b, 0x74, 0x47, 0x3d,
  0xb0, 0x92, 0x82, 0x3c, 0xf5, 0x10, 0xf4, 0x3d, 0x21, 0xde, 0x3c, 0xbb,
  0x48, 0xb9, 0x86, 0xbc, 0x18, 0xe9, 0x34, 0x3e, 0x39, 0xcf, 0x34, 0x3e,
  0xec, 0xa1, 0x58, 0x3e, 0x01, 0x36, 0x4e, 0x3d, 0xbe, 0x00, 0x14, 0x3e,
  0x3e, 0x98, 0x19, 0xbe, 0xf0, 0xd4, 0x8e, 0x3d, 0x2e, 0xff, 0xe7, 0x3d,
  0x9a, 0xa8, 0x63, 0xbe, 0x98, 0x2b, 0xea, 0xbd, 0x5a, 0x5c, 0xed, 0x3b,
  0xc8, 0x37, 0x17, 0xbe, 0x38, 0xd6, 0xe9, 0xbd, 0x93, 0xc6, 0x33, 0xbd,
  0x62, 0x6d, 0xbf, 0xbe, 0x28, 0xd6, 0xad, 0xbe, 0x75, 0xa0, 0x0f, 0x3d,
  0x04, 0x94, 0x5d, 0x3e, 0xf4, 0xac, 0xd4, 0xbd, 0xdc, 0xda, 0x63, 0xbe,
  0xcc, 0x4e, 0xa0, 0x3e, 0x01, 0x89, 0xc6, 0xbe, 0x72, 0x80, 0xc1, 0xbd,
  0xe9, 0x41, 0xbe, 0x3d, 0x9f, 0x37, 0x80, 0xbe, 0xa2, 0xaa, 0x99, 0xbe,
  0xad, 0x6a, 0x4e, 0x3c, 0x16, 0x73, 0xa7, 0xbe, 0xfb, 0x0d, 0xed, 0xbd,
  0x06, 0x85, 0xf0, 0x3d, 0x07, 0x5a, 0x9b, 0x3d, 0x95, 0xd2, 0x53, 0xbe,
  0x63, 0x61, 0x44, 0xbe, 0xe6, 0xc3, 0x93, 0x3d, 0x1b, 0xe8, 0x12, 0xbd,
  0x87, 0xd1, 0xb1, 0x3d, 0x19, 0xe7, 0x63, 0x3e, 0x1f, 0xba, 0x61, 0xbe,
  0x01, 0xae, 0x25, 0xbe, 0x60, 0x4a, 0x7e, 0x3d, 0xab, 0x59, 0xab, 0x3c,
  0xbd, 0x42, 0x06, 0xbe, 0xa1, 0x4d, 0x94, 0x3e, 0x91, 0xef, 0x39, 0xbe,
  0xad, 0x25, 0x33, 0xbd, 0x16, 0xa2, 0x62, 0xbe, 0x46, 0xe7, 0x6b, 0x3e,
  0x85, 0x65, 0x1a, 0x3d, 0x0b, 0x17, 0x29, 0xbe, 0xff, 0x06, 0xa6, 0x3d,
  0xaf, 0x0e, 0x96, 0x3c, 0x17, 0x19, 0xd2, 0xbd, 0x75, 0xb6, 0xea, 0x3c,
  0xf2, 0xd1, 0xbb, 0xbd, 0xdc, 0x29, 0xc3, 0xbd, 0xd8, 0xa2, 0xf6, 0x3b,
  0x7f, 0xf7, 0x5f, 0xbd, 0x9c, 0x5c, 0x8a, 0xbe, 0xae, 0x3b, 0xb4, 0x3c,
  0x22, 0x36, 0x3a, 0xbe, 0x16, 0xad, 0xa6, 0xbd, 0xa8, 0x47, 0xed, 0xbd,
  0xf7, 0xdb, 0xcf, 0xbc, 0x3c, 0x4e, 0x18, 0x3e, 0xa7, 0x66, 0x85, 0xbe,
  0xe7, 0xdd, 0x5b, 0x3d, 0xad, 0x4d, 0x84, 0xbd, 0x56, 0xd1, 0x83, 0xbd,
  0xad, 0x7a, 0x67, 0x3e, 0x1c, 0xbc, 0x97, 0xbe, 0xf7, 0x35, 0x48, 0xbc,
  0x47, 0x21, 0x91, 0x3d, 0x3d, 0xae, 0xd2, 0xbc, 0xea, 0x4d, 0xb1, 0xbe,
  0x9e, 0x3f, 0x12, 0x3e, 0x9e, 0x26, 0x4b, 0xbe, 0xc1, 0x79, 0x87, 0xbd,
  0x85, 0x29, 0x5d, 0xbd, 0x08, 0xbb, 0x5d, 0xbd, 0x14, 0x2c, 0x14, 0x3e,
  0xfb, 0xfa, 0x58, 0xbe, 0x51, 0x7c, 0x4f, 0xbd, 0x7f, 0x5a, 0x78, 0xbe,
  0xdd, 0x03, 0xae, 0x3b, 0x9c, 0x6d, 0xe5, 0xbd, 0x76, 0xc2, 0xca, 0xbe,
  0x62, 0x1b, 0x91, 0x3b, 0x5d, 0xba, 0xc7, 0xbd, 0xb6, 0xdb, 0x11, 0xbe,
  0x5d, 0x99, 0xc4, 0xbd, 0x1e, 0xf6, 0x4f, 0x3e, 0x88, 0x45, 0x62, 0xbe,
  0x66, 0xdb, 0xc3, 0xbe, 0x03, 0x84, 0x62, 0xbe, 0x2b, 0x0a, 0x4d, 0xbd,
  0x55, 0x9e, 0x9d, 0xbd, 0x61, 0xc6, 0x38, 0xbe, 0x87, 0x62, 0x0e, 0xbd,
  0xb6, 0x3b, 0x97, 0x3d, 0x41, 0x12, 0x19, 0x3e, 0x93, 0xb9, 0xff, 0xbc,
  0x79, 0x70, 0xd0, 0xbd, 0x8f, 0xbe, 0x2e, 0x3e, 0x59, 0xa6, 0x82, 0x3d,
  0xd0, 0x1d, 0x15, 0x3b, 0x7c, 0xe2, 0x6b, 0xbe, 0x54, 0xa0, 0x8c, 0xbe,
  0x1f, 0x14, 0xf5, 0xbd, 0x1a, 0x54, 0x9e, 0xbd, 0xae, 0x7e, 0x1b, 0xbd,
  0x83, 0x56, 0x24, 0x3e, 0x78, 0x25, 0x9b, 0xbd, 0xaa, 0x18, 0x25, 0x3d,
  0x31, 0xc8, 0x06, 0x3e, 0x2e, 0xe2, 0x36, 0xbe, 0xd0, 0x3a, 0xef, 0x3d,
  0x8f, 0x46, 0xff, 0x3d, 0x4f, 0x9a, 0xbe, 0xbc, 0x5a, 0xbd, 0x17, 0xbe,
  0x0a, 0x19, 0xa9, 0xbd, 0x8e, 0xb9, 0xa8, 0xbe, 0x09, 0x5e, 0x34, 0x3e,
  0x23, 0x43, 0xe4, 0x3d, 0x94, 0x26, 0xfe, 0xbd, 0x23, 0xbe, 0xd5, 0xbd,
  0x68, 0x85, 0x92, 0x3c, 0x1e, 0x00, 0xb4, 0xbc, 0xb8, 0x46, 0xc5, 0xbd,
  0x8e, 0xfd, 0xcd, 0xbe, 0xbb, 0xba, 0x96, 0xbe, 0x1a, 0x9d, 0x34, 0xbe,
  0xca, 0xf4, 0x31, 0xbc, 0x02, 0xff, 0xa4, 0x3e, 0x2a, 0x8c, 0xb5, 0xbc,
  0xff, 0x18, 0x17, 0xbe, 0x07, 0xa0, 0xed, 0xbb, 0xb5, 0xb8, 0x06, 0xbe,
  0xa7, 0x4e, 0xac, 0x3e, 0x04, 0x46, 0x8c, 0x3e, 0x75, 0x9d, 0x3b, 0xbd,
  0xd0, 0xe1, 0xa2, 0x3c, 0xeb, 0x21, 0x33, 0xbe, 0xe0, 0xd5, 0x13, 0xbe,
  0xa2, 0x17, 0xf6, 0xbd, 0x44, 0x02, 0xfc, 0xbe, 0x29, 0x14, 0xa9, 0xbd,
  0x2f, 0x69, 0x20, 0xbc, 0x03, 0xa8, 0x08, 0xbe, 0x5c, 0x57, 0x7e, 0x3e,
  0xfd, 0x75, 0x47, 0x3d, 0x12, 0xd1, 0x2a, 0xbe, 0xc7, 0xd4, 0x06, 0x3d,
  0x8b, 0x7d, 0x96, 0xbd, 0x1c, 0xbc, 0xa1, 0x3e, 0xf6, 0xb8, 0x63, 0x3e,
  0x70, 0x49, 0xdd, 0x3d, 0xf2, 0xaf, 0xe8, 0xbc, 0xb0, 0x3a, 0x0c, 0x3e,
  0xc4, 0x79, 0xd5, 0x3d, 0x24, 0x50, 0x05, 0xbc, 0x86, 0x66, 0x93, 0x3d,
  0x08, 0x33, 0x82, 0x3c, 0x5d, 0xd6, 0x4c, 0xbd, 0xe4, 0xff, 0xb4, 0x3d,
  0x97, 0x04, 0xcc, 0xbd, 0x4e, 0xf2, 0xc2, 0x3d, 0x49, 0x5e, 0xa7, 0x3d,
  0x13, 0x3e, 0x69, 0x3d, 0xe2, 0x75, 0x50, 0x3d, 0xe9, 0xb5, 0x15, 0x3f,
  0x27, 0x5e, 0xb7, 0xbd, 0x9a, 0x00, 0x88, 0x3e, 0xcb, 0x5a, 0xb3, 0x3c,
  0xc2, 0x71, 0xd3, 0x3e, 0x01, 0x2c, 0x0f, 0xbe, 0xc1, 0xcd, 0xbe, 0x3d,
  0x51, 0xc8, 0xc0, 0xbd, 0xa2, 0x71, 0x84, 0x3c, 0x20, 0xab, 0x0a, 0xbe,
  0xd9, 0xe8, 0x84, 0xbd, 0x0a, 0x68, 0x9c, 0xbe, 0x5b, 0xf3, 0x0d, 0x3d,
  0x9d, 0x13, 0x83, 0xbe, 0xb3, 0xfe, 0x59, 0x3d, 0x9a, 0x6d, 0x00, 0xbe,
  0xf1, 0x79, 0x94, 0x3e, 0x82, 0x18, 0x9b, 0x3e, 0x4d, 0x6c, 0x16, 0xbe,
  0x39, 0x5e, 0x8d, 0xbd, 0x0e, 0xd3, 0x23, 0x3e, 0x31, 0x37, 0xd6, 0x3d,
  0x1c, 0x80, 0x2e, 0x3d, 0x28, 0xd6, 0xc4, 0x3c, 0xea, 0x0e, 0xc1, 0xbe,
  0xd0, 0x9e, 0x0c, 0xbd, 0x7e, 0x24, 0x17, 0xbe, 0x85, 0xb4, 0x0c, 0xbe,
  0xf1, 0x55, 0xc8, 0xbc, 0x9f, 0x34, 0x06, 0xbe, 0xb3, 0xd0, 0xb7, 0x3d,
  0x41, 0xd9, 0x64, 0xbd, 0x5a, 0x63, 0xb6, 0x3e, 0x1f, 0x06, 0x2a, 0x3e,
  0xae, 0xbd, 0x68, 0xbc, 0xad, 0x04, 0x5b, 0xbe, 0xdb, 0xdb, 0x01, 0x3f,
  0xd4, 0xf2, 0xd1, 0xbd, 0x78, 0x3f, 0x38, 0x3d, 0x23, 0x17, 0x83, 0xbe,
  0x58, 0xf2, 0xb8, 0xbe, 0xcd, 0x44, 0x76, 0x3d, 0xc6, 0x20, 0x1f, 0x3d,
  0xa2, 0x99, 0x4d, 0xbe, 0x02, 0x38, 0x3a, 0x3e, 0x53, 0x1c, 0xd0, 0xbe,
  0xdb, 0xf9, 0xa9, 0xbc, 0x56, 0x32, 0x8a, 0xbd, 0xa5, 0x41, 0xbf, 0x3e,
  0xae, 0xaf, 0x07, 0xbd, 0x17, 0x30, 0xa2, 0xbe, 0x73, 0xc8, 0xd9, 0xbe,
  0x82, 0x99, 0x81, 0xbd, 0xce, 0xa5, 0xf3, 0xbc, 0x18, 0x93, 0xac, 0xbc,
  0x24, 0xca, 0x0d, 0x3e, 0x04, 0xb1, 0x26, 0x3e, 0x7b, 0x41, 0x86, 0xbe,
  0x72, 0x91, 0x16, 0xbe, 0xd5, 0x4c, 0xf3, 0xbc, 0x83, 0xed, 0xad, 0xbe,
  0x51, 0x7e, 0x48, 0x3d, 0x20, 0x84, 0x2d, 0x3e, 0x36, 0x11, 0xee, 0xbd,
  0x35, 0xa7, 0x6e, 0xbd, 0xe5, 0xb1, 0x2f, 0x3e, 0x78, 0x80, 0x8b, 0xbd,
  0x5f, 0x5d, 0xbe, 0x3d, 0xa7, 0x2d, 0xac, 0xbd, 0x72, 0x08, 0x8f, 0xbd,
  0x56, 0xc1, 0x84, 0xbe, 0x5f, 0xfc, 0x5e, 0xbe, 0x3a, 0xc7, 0x80, 0xbe,
  0x4e, 0xdb, 0x74, 0xbe, 0xb4, 0x01, 0x8e, 0xbd, 0xe5, 0x38, 0xf6, 0x3d,
  0x3d, 0x45, 0x0f, 0xbe, 0x89, 0xc9, 0x39, 0xbe, 0x34, 0xb3, 0xaf, 0x3c,
  0xfd, 0x75, 0x58, 0x3d, 0x36, 0xaf, 0x1e, 0xbe, 0x72, 0x9a, 0x8e, 0x3e,
  0xf0, 0x32, 0x68, 0xbe, 0x14, 0xe4, 0x76, 0x3b, 0xf6, 0x47, 0x8c, 0xbe,
  0xa3, 0x7b, 0x38, 0x3e, 0x58, 0x5b, 0x15, 0xbe, 0x65, 0xa4, 0x87, 0xbe,
  0x16, 0x11, 0x01, 0x3e, 0xf4, 0xbe, 0xca, 0xbd, 0xb9, 0x2b, 0xcb, 0x3d,
  0xbf, 0xc6, 0x88, 0xbd, 0x77, 0x89, 0xc8, 0xbd, 0xc1, 0x6a, 0x85, 0xbe,
  0x42, 0x2b, 0x91, 0x3c, 0xc4, 0x0a, 0x4a, 0x3e, 0x59, 0xab, 0x29, 0xbe,
  0x24, 0xe1, 0x0e, 0x3e, 0xd9, 0xd5, 0x81, 0xbe, 0x68, 0xff, 0x54, 0xbe,
  0xbb, 0x45, 0xb2, 0x3d, 0x6d, 0xf6, 0x8b, 0x3c, 0xe8, 0xe3, 0xa7, 0xbd,
  0xfa, 0xef, 0x9f, 0x3d, 0x29, 0x90, 0xb3, 0xbd, 0x10, 0x9e, 0xe2, 0xbd,
  0xd8, 0xd4, 0xbe, 0x3d, 0x34, 0x80, 0x43, 0xbe, 0x7f, 0x9c, 0xe6, 0xbc,
  0xed, 0x9a, 0xbd, 0x3d, 0x39, 0x1b, 0xb7, 0xbc, 0xe4, 0x54, 0x3f, 0x3e,
  0x82, 0xf0, 0x27, 0xbe, 0xa2, 0xbb, 0xa9, 0x3d, 0xce, 0xcc, 0x34, 0xbc,
  0x67, 0x1a, 0xf5, 0xbc, 0xb6, 0x7d, 0xbd, 0xbd, 0x13, 0xed, 0x11, 0xbd,
  0x44, 0x93, 0x1d, 0x3d, 0xd7, 0x05, 0xa6, 0xbd, 0x2f, 0x42, 0x0b, 0xbe,
  0x84, 0xb3, 0x31, 0xbd, 0x0c, 0xf4, 0x82, 0xbb, 0x1d, 0x0a, 0x8f, 0xbd,
  0x41, 0xf8, 0x02, 0xbe, 0x57, 0xc4, 0xff, 0xbb, 0x6b, 0xab, 0xaf, 0x3d,
  0x97, 0x13, 0x43, 0x3e, 0x3a, 0xda, 0xc9, 0x3c, 0x71, 0x03, 0x0c, 0x3e,
  0xbf, 0x40, 0x18, 0xbe, 0xb4, 0x01, 0x08, 0x3d, 0x65, 0x5d, 0x42, 0xbd,
  0xb5, 0xd5, 0x53, 0x3e, 0x1f, 0xa5, 0xf1, 0xbd, 0x3c, 0xc7, 0xa6, 0xbe,
  0xce, 0x6f, 0xa8, 0x3e, 0x6e, 0xa6, 0x9a, 0x3d, 0x93, 0x38, 0xfe, 0x3d,
  0x28, 0xb2, 0x5d, 0x3e, 0x09, 0x79, 0x7b, 0xbe, 0xc6, 0x19, 0x18, 0xbe,
  0x4e, 0xde, 0xad, 0x3d, 0x89, 0x5c, 0x94, 0x3d, 0xe3, 0x51, 0xe6, 0xbb,
  0x3b, 0xb9, 0x8c, 0x3e, 0xaa, 0x69, 0x3b, 0xbe, 0x37, 0xf4, 0xb8, 0xbe,
  0x0c, 0x1d, 0xec, 0xbc, 0x87, 0x12, 0x5f, 0x3d, 0xa7, 0xf2, 0x1f, 0xbe,
  0x9e, 0x52, 0x12, 0xba, 0xd0, 0x84, 0x42, 0x3e, 0xb6, 0x9a, 0xcf, 0xbc,
  0xde, 0x7f, 0x42, 0xbd, 0x0f, 0xd0, 0x0f, 0xbe, 0x9e, 0x3f, 0x07, 0x3e,
  0xf8, 0xe8, 0xb3, 0xbd, 0x64, 0x95, 0xb5, 0x3d, 0x19, 0x22, 0x18, 0x3e,
  0xcd, 0xb6, 0x3b, 0xbe, 0x00, 0x1e, 0xf6, 0x3d, 0x87, 0xdf, 0x1f, 0xbe,
  0x8e, 0xc8, 0x0b, 0xbe, 0xc5, 0x0f, 0x4b, 0xbd, 0x5b, 0xa7, 0x83, 0xbe,
  0x50, 0x60, 0xa7, 0xbe, 0xdf, 0x8a, 0xf8, 0xbc, 0x9d, 0x5e, 0x97, 0x3e,
  0x46, 0xfe, 0xff, 0xff, 0x10, 0x00, 0x00, 0x00, 0x05, 0x00, 0x00, 0x00,
  0x14, 0x00, 0x00, 0x00, 0x2c, 0x00, 0x00, 0x00, 0x02, 0x00, 0x00, 0x00,
  0x10, 0x00, 0x00, 0x00, 0x70, 0x00, 0x00, 0x00, 0x17, 0x00, 0x00, 0x00,
  0x73, 0x65, 0x71, 0x75, 0x65, 0x6e, 0x74, 0x69, 0x61, 0x6c, 0x2f, 0x64,
  0x65, 0x6e, 0x73, 0x65, 0x2f, 0x4d, 0x61, 0x74, 0x4d, 0x75, 0x6c, 0x00,
  0x34, 0xfe, 0xff, 0xff, 0x2a, 0xff, 0xff, 0xff, 0x04, 0x00, 0x00, 0x00,
  0x08, 0x00, 0x00, 0x00, 0xff, 0xff, 0xff, 0xff, 0x70, 0x00, 0x00, 0x00,
  0x00, 0x00, 0x0e, 0x00, 0x18, 0x00, 0x08, 0x00, 0x07, 0x00, 0x0c, 0x00,
  0x10, 0x00, 0x14, 0x00, 0x0e, 0x00, 0x00, 0x00, 0x00, 0x00, 0x00, 0x02,
  0x10, 0x00, 0x00, 0x00, 0x04, 0x00, 0x00, 0x00, 0x10, 0x00, 0x00, 0x00,
  0x2c, 0x00, 0x00, 0x00, 0x01, 0x00, 0x00, 0x00, 0x02, 0x00, 0x00, 0x00,
  0x18, 0x00, 0x00, 0x00, 0x73, 0x65, 0x71, 0x75, 0x65, 0x6e, 0x74, 0x69,
  0x61, 0x6c, 0x2f, 0x66, 0x6c, 0x61, 0x74, 0x74, 0x65, 0x6e, 0x2f, 0x43,
  0x6f, 0x6e, 0x73, 0x74, 0x00, 0x00, 0x00, 0x00, 0x9c, 0xfe, 0xff, 0xff,
  0x92, 0xff, 0xff, 0xff, 0x04, 0x00, 0x00, 0x00, 0x10, 0x00, 0x00, 0x00,
  0xe9, 0x10, 0x7e, 0xbf, 0xd2, 0x72, 0x95, 0xc0, 0xef, 0x5a, 0xfd, 0x3e,
  0x4c, 0x31, 0x05, 0x40, 0x0a, 0xff, 0xff, 0xff, 0x10, 0x00, 0x00, 0x00,
  0x03, 0x00, 0x00, 0x00, 0x10, 0x00, 0x00, 0x00, 0x3c, 0x00, 0x00, 0x00,
  0x01, 0x00, 0x00, 0x00, 0x04, 0x00, 0x00, 0x00, 0x29, 0x00, 0x00, 0x00,
  0x73, 0x65, 0x71, 0x75, 0x65, 0x6e, 0x74, 0x69, 0x61, 0x6c, 0x2f, 0x64,
  0x65, 0x6e, 0x73, 0x65, 0x5f, 0x31, 0x2f, 0x42, 0x69, 0x61, 0x73, 0x41,
  0x64, 0x64, 0x2f, 0x52, 0x65, 0x61, 0x64, 0x56, 0x61, 0x72, 0x69, 0x61,
  0x62, 0x6c, 0x65, 0x4f, 0x70, 0x00, 0x00, 0x00, 0x60, 0xff, 0xff, 0xff,
  0x00, 0x00, 0x06, 0x00, 0x08, 0x00, 0x04, 0x00, 0x06, 0x00, 0x00, 0x00,
  0x04, 0x00, 0x00, 0x00, 0x40, 0x00, 0x00, 0x00, 0xa5, 0x89, 0x26, 0xbf,
  0xcb, 0x2c, 0x24, 0x40, 0x5d, 0xca, 0x51, 0x3f, 0x0d, 0xad, 0xdc, 0xbe,
  0x6a, 0x3d, 0xed, 0xbe, 0xc2, 0xf5, 0x2b, 0x40, 0x71, 0xa1, 0x00, 0xc0,
  0xdb, 0x09, 0x21, 0xbf, 0x35, 0x6b, 0x4d, 0xbf, 0xd1, 0xc6, 0x92, 0xbf,
  0xc7, 0xe6, 0xa1, 0x3f, 0xa3, 0x12, 0x0f, 0xc0, 0x7e, 0x20, 0x91, 0x3f,
  0xa2, 0x1f, 0xf8, 0x3f, 0x4b, 0xed, 0x2e, 0x40, 0xee, 0x9d, 0x1c, 0x3f,
  0xae, 0xff, 0xff, 0xff, 0x10, 0x00, 0x00, 0x00, 0x02, 0x00, 0x00, 0x00,
  0x10, 0x00, 0x00, 0x00, 0x3c, 0x00, 0x00, 0x00, 0x01, 0x00, 0x00, 0x00,
  0x10, 0x00, 0x00, 0x00, 0x27, 0x00, 0x00, 0x00, 0x73, 0x65, 0x71, 0x75,
  0x65, 0x6e, 0x74, 0x69, 0x61, 0x6c, 0x2f, 0x64, 0x65, 0x6e, 0x73, 0x65,
  0x2f, 0x42, 0x69, 0x61, 0x73, 0x41, 0x64, 0x64, 0x2f, 0x52, 0x65, 0x61,
  0x64, 0x56, 0x61, 0x72, 0x69, 0x61, 0x62, 0x6c, 0x65, 0x4f, 0x70, 0x00,
  0x04, 0x00, 0x06, 0x00, 0x04, 0x00, 0x00, 0x00, 0x00, 0x00, 0x0e, 0x00,
  0x14, 0x00, 0x04, 0x00, 0x00, 0x00, 0x08, 0x00, 0x0c, 0x00, 0x10, 0x00,
  0x0e, 0x00, 0x00, 0x00, 0x10, 0x00, 0x00, 0x00, 0x01, 0x00, 0x00, 0x00,
  0x1c, 0x00, 0x00, 0x00, 0x2c, 0x00, 0x00, 0x00, 0x04, 0x00, 0x00, 0x00,
  0x01, 0x00, 0x00, 0x00, 0x40, 0x00, 0x00, 0x00, 0x03, 0x00, 0x00, 0x00,
  0x01, 0x00, 0x00, 0x00, 0x0c, 0x00, 0x00, 0x00, 0x63, 0x6f, 0x6e, 0x76,
  0x32, 0x64, 0x5f, 0x69, 0x6e, 0x70, 0x75, 0x74, 0x00, 0x00, 0x00, 0x00,
  0xfc, 0xff, 0xff, 0xff, 0x04, 0x00, 0x04, 0x00, 0x04, 0x00, 0x00, 0x00
};






unsigned int model_tflite_len = 12384;// Fill the int in `src/model.cc` here